{
  "version": "1.0",
  "truncation": null,
  "padding": null,
  "added_tokens": [],
  "normalizer": null,
  "pre_tokenizer": {
    "type": "Whitespace"
  },
  "post_processor": null,
  "decoder": null,
  "model": {
    "type": "BPE",
    "dropout": null,
    "unk_token": null,
    "continuing_subword_prefix": null,
    "end_of_word_suffix": null,
    "fuse_unk": false,
    "byte_fallback": false,
    "ignore_merges": false,
    "vocab": {
      "'": 0,
      "(": 1,
      ")": 2,
      ",": 3,
      "-": 4,
      ".": 5,
      "1": 6,
      "2": 7,
      "4": 8,
      ":": 9,
      "?": 10,
      "A": 11,
      "B": 12,
      "C": 13,
      "D": 14,
      "E": 15,
      "F": 16,
      "G": 17,
      "H": 18,
      "I": 19,
      "J": 20,
      "K": 21,
      "L": 22,
      "M": 23,
      "N": 24,
      "O": 25,
      "P": 26,
      "Q": 27,
      "R": 28,
      "S": 29,
      "T": 30,
      "U": 31,
      "V": 32,
      "W": 33,
      "Y": 34,
      "[": 35,
      "]": 36,
      "a": 37,
      "b": 38,
      "c": 39,
      "d": 40,
      "e": 41,
      "f": 42,
      "g": 43,
      "h": 44,
      "i": 45,
      "j": 46,
      "k": 47,
      "l": 48,
      "m": 49,
      "n": 50,
      "o": 51,
      "p": 52,
      "q": 53,
      "r": 54,
      "s": 55,
      "t": 56,
      "u": 57,
      "v": 58,
      "w": 59,
      "x": 60,
      "y": 61,
      "z": 62,
      "ं": 63,
      "ः": 64,
      "अ": 65,
      "आ": 66,
      "इ": 67,
      "ए": 68,
      "क": 69,
      "ग": 70,
      "ङ": 71,
      "च": 72,
      "ञ": 73,
      "ट": 74,
      "ठ": 75,
      "ड": 76,
      "ण": 77,
      "त": 78,
      "द": 79,
      "न": 80,
      "प": 81,
      "म": 82,
      "य": 83,
      "र": 84,
      "ल": 85,
      "व": 86,
      "श": 87,
      "ष": 88,
      "स": 89,
      "ा": 90,
      "ि": 91,
      "ी": 92,
      "ु": 93,
      "े": 94,
      "ो": 95,
      "्": 96,
      "।": 97,
      "৷": 98,
      "—": 99,
      "’": 100,
      "th": 101,
      "an": 102,
      "in": 103,
      "the": 104,
      "re": 105,
      "ou": 106,
      "ed": 107,
      "er": 108,
      "on": 109,
      "ar": 110,
      "of": 111,
      "and": 112,
      "is": 113,
      "ing": 114,
      "en": 115,
      "at": 116,
      "es": 117,
      "or": 118,
      "as": 119,
      "wi": 120,
      "am": 121,
      "to": 122,
      "ll": 123,
      "it": 124,
      "de": 125,
      "ro": 126,
      "he": 127,
      "st": 128,
      "li": 129,
      "with": 130,
      "you": 131,
      "ama": 132,
      "le": 133,
      "Rama": 134,
      "ak": 135,
      "se": 136,
      "sh": 137,
      "ow": 138,
      "av": 139,
      "ana": 140,
      "al": 141,
      "be": 142,
      "ch": 143,
      "wh": 144,
      "gh": 145,
      "ot": 146,
      "ce": 147,
      "ri": 148,
      "his": 149,
      "ad": 150,
      "om": 151,
      "by": 152,
      "ke": 153,
      "ds": 154,
      "sa": 155,
      "ti": 156,
      "ly": 157,
      "ght": 158,
      "ge": 159,
      "fu": 160,
      "ir": 161,
      "ld": 162,
      "ita": 163,
      "for": 164,
      "like": 165,
      "lo": 166,
      "fe": 167,
      "me": 168,
      "ons": 169,
      "us": 170,
      "ent": 171,
      "we": 172,
      "ra": 173,
      "are": 174,
      "dem": 175,
      "fo": 176,
      "un": 177,
      "who": 178,
      "ab": 179,
      "fi": 180,
      "id": 181,
      "all": 182,
      "her": 183,
      "Sita": 184,
      "not": 185,
      "my": 186,
      "ful": 187,
      "red": 188,
      "aksh": 189,
      "hi": 190,
      "ver": 191,
      "go": 192,
      "wor": 193,
      "ther": 194,
      "The": 195,
      "ous": 196,
      "Laksh": 197,
      "Lakshm": 198,
      "com": 199,
      "ay": 200,
      "will": 201,
      "Lakshmana": 202,
      "was": 203,
      "ac": 204,
      "ap": 205,
      "ess": 206,
      "oun": 207,
      "fore": 208,
      "ave": 209,
      "your": 210,
      "od": 211,
      "king": 212,
      "ru": 213,
      "pe": 214,
      "ve": 215,
      "row": 216,
      "ong": 217,
      "ur": 218,
      "reat": 219,
      "te": 220,
      "har": 221,
      "out": 222,
      "ter": 223,
      "this": 224,
      "ain": 225,
      "that": 226,
      "avana": 227,
      "est": 228,
      "Ravana": 229,
      "res": 230,
      "forest": 231,
      "ic": 232,
      "demons": 233,
      "au": 234,
      "ki": 235,
      "rom": 236,
      "mi": 237,
      "one": 238,
      "ari": 239,
      "have": 240,
      "ct": 241,
      "Th": 242,
      "ers": 243,
      "him": 244,
      "from": 245,
      "ant": 246,
      "great": 247,
      "ho": 248,
      "ion": 249,
      "now": 250,
      "्य": 251,
      "po": 252,
      "tre": 253,
      "arrow": 254,
      "He": 255,
      "bro": 256,
      "ok": 257,
      "ty": 258,
      "any": 259,
      "pl": 260,
      "pro": 261,
      "has": 262,
      "You": 263,
      "said": 264,
      "do": 265,
      "here": 266,
      "du": 267,
      "ven": 268,
      "ut": 269,
      "ath": 270,
      "mo": 271,
      "su": 272,
      "ep": 273,
      "war": 274,
      "demon": 275,
      "ound": 276,
      "il": 277,
      "kill": 278,
      "see": 279,
      "der": 280,
      "di": 281,
      "sed": 282,
      "right": 283,
      "words": 284,
      "ag": 285,
      "ind": 286,
      "our": 287,
      "ang": 288,
      "्र": 289,
      "ould": 290,
      "arrows": 291,
      "can": 292,
      "con": 293,
      "tion": 294,
      "ha": 295,
      "sage": 296,
      "qu": 297,
      "ate": 298,
      "whi": 299,
      "ple": 300,
      "brother": 301,
      "ear": 302,
      "dis": 303,
      "र्": 304,
      "का": 305,
      "able": 306,
      "ace": 307,
      "way": 308,
      "own": 309,
      "per": 310,
      "ted": 311,
      "ten": 312,
      "ish": 313,
      "fl": 314,
      "ol": 315,
      "In": 316,
      "bl": 317,
      "ex": 318,
      "tain": 319,
      "ance": 320,
      "im": 321,
      "their": 322,
      "ren": 323,
      "si": 324,
      "ble": 325,
      "ated": 326,
      "up": 327,
      "no": 328,
      "ust": 329,
      "trees": 330,
      "know": 331,
      "ck": 332,
      "ord": 333,
      "bow": 334,
      "beau": 335,
      "af": 336,
      "gr": 337,
      "ame": 338,
      "Khar": 339,
      "cl": 340,
      "so": 341,
      "Khara": 342,
      "um": 343,
      "ity": 344,
      "were": 345,
      "ma": 346,
      "ved": 347,
      "herm": 348,
      "Thus": 349,
      "ul": 350,
      "arm": 351,
      "form": 352,
      "ious": 353,
      "chari": 354,
      "hermita": 355,
      "chariot": 356,
      "et": 357,
      "deer": 358,
      "Wh": 359,
      "its": 360,
      "bo": 361,
      "lf": 362,
      "dra": 363,
      "there": 364,
      "ey": 365,
      "she": 366,
      "end": 367,
      "orn": 368,
      "ake": 369,
      "des": 370,
      "ith": 371,
      "ry": 372,
      "rin": 373,
      "ands": 374,
      "even": 375,
      "aka": 376,
      "which": 377,
      "saw": 378,
      "tiful": 379,
      "look": 380,
      "moun": 381,
      "ure": 382,
      "bir": 383,
      "fir": 384,
      "over": 385,
      "into": 386,
      "them": 387,
      "read": 388,
      "ower": 389,
      "eous": 390,
      "sp": 391,
      "beautiful": 392,
      "hermitage": 393,
      "ef": 394,
      "hear": 395,
      "full": 396,
      "It": 397,
      "down": 398,
      "if": 399,
      "other": 400,
      "bod": 401,
      "ide": 402,
      "ne": 403,
      "might": 404,
      "Sun": 405,
      "had": 406,
      "life": 407,
      "being": 408,
      "gold": 409,
      "fire": 410,
      "gods": 411,
      "come": 412,
      "ges": 413,
      "ped": 414,
      "ched": 415,
      "well": 416,
      "men": 417,
      "ci": 418,
      "ough": 419,
      "among": 420,
      "self": 421,
      "about": 422,
      "killed": 423,
      "first": 424,
      "dest": 425,
      "ting": 426,
      "yana": 427,
      "ars": 428,
      "Indra": 429,
      "ga": 430,
      "ts": 431,
      "Ramayana": 432,
      "world": 433,
      "gri": 434,
      "va": 435,
      "वा": 436,
      "co": 437,
      "ction": 438,
      "min": 439,
      "spe": 440,
      "wat": 441,
      "these": 442,
      "aving": 443,
      ").": 444,
      "blo": 445,
      "best": 446,
      "lad": 447,
      "ose": 448,
      "off": 449,
      "ends": 450,
      "cted": 451,
      "away": 452,
      "ness": 453,
      "sar": 454,
      "tw": 455,
      "ack": 456,
      "app": 457,
      "urn": 458,
      "holy": 459,
      "mountain": 460,
      "mighty": 461,
      "Ar": 462,
      "long": 463,
      "compo": 464,
      "Jan": 465,
      "ving": 466,
      "epic": 467,
      "composed": 468,
      "el": 469,
      "wife": 470,
      "under": 471,
      "righteous": 472,
      "should": 473,
      "ome": 474,
      "ni": 475,
      "sk": 476,
      "anda": 477,
      "death": 478,
      "after": 479,
      "hu": 480,
      "lord": 481,
      "prin": 482,
      "vi": 483,
      "स्": 484,
      "Val": 485,
      "ph": 486,
      "ank": 487,
      "lled": 488,
      "very": 489,
      "car": 490,
      "fa": 491,
      "power": 492,
      "sc": 493,
      "ves": 494,
      "अर": 495,
      "आद": 496,
      "इत": 497,
      "डे": 498,
      "णे": 499,
      "ण्": 500,
      "ण्य": 501,
      "द्र": 502,
      "मद्र": 503,
      "यणे": 504,
      "व्य": 505,
      "श्र": 506,
      "सर्": 507,
      "ाम": 508,
      "िका": 509,
      "roy": 510,
      "akanda": 511,
      "sages": 512,
      "There": 513,
      "miki": 514,
      "anyakanda": 515,
      "again": 516,
      "काण्": 517,
      "birds": 518,
      "body": 519,
      "sarga": 520,
      "Aranyakanda": 521,
      "Valmiki": 522,
      "अरण्य": 523,
      "आदिका": 524,
      "मद्राम": 525,
      "व्ये": 526,
      "श्री": 527,
      "सर्ग": 528,
      "काण्डे": 529,
      "अरण्यकाण्डे": 530,
      "आदिकाव्ये": 531,
      "Va": 532,
      "gl": 533,
      "ार्": 534,
      "ायणे": 535,
      "ीक": 536,
      "ise": 537,
      "ene": 538,
      "without": 539,
      "als": 540,
      "been": 541,
      "Then": 542,
      "वाल": 543,
      "स्सर्ग": 544,
      "मद्रामायणे": 545,
      "happ": 546,
      "par": 547,
      "मीक": 548,
      "्मीक": 549,
      "ree": 550,
      "along": 551,
      "fear": 552,
      "श्रीमद्रामायणे": 553,
      "ार्ष": 554,
      "स्सर्गः": 555,
      "less": 556,
      "ud": 557,
      "where": 558,
      "ीय": 559,
      "।।": 560,
      "ati": 561,
      "att": 562,
      "light": 563,
      "owers": 564,
      "ayu": 565,
      "वाल्मीक": 566,
      "pan": 567,
      "ser": 568,
      "इत्य": 569,
      "br": 570,
      "man": 571,
      "head": 572,
      "str": 573,
      "tic": 574,
      "time": 575,
      "aught": 576,
      "anger": 577,
      "eyes": 578,
      "cri": 579,
      "ered": 580,
      "lot": 581,
      "pen": 582,
      "when": 583,
      "both": 584,
      "lady": 585,
      "वाल्मीकीय": 586,
      "इत्यार्ष": 587,
      "Jat": 588,
      "cess": 589,
      "hands": 590,
      "ine": 591,
      "ast": 592,
      "dif": 593,
      "When": 594,
      "Jatayu": 595,
      "ced": 596,
      "came": 597,
      "dread": 598,
      "ation": 599,
      "deed": 600,
      "key": 601,
      "ground": 602,
      "destroy": 603,
      "This": 604,
      "ft": 605,
      "ses": 606,
      "asty": 607,
      "pleas": 608,
      "tru": 609,
      "they": 610,
      "rah": 611,
      "looked": 612,
      "water": 613,
      "dreadful": 614,
      "ele": 615,
      "ence": 616,
      "love": 617,
      "abdu": 618,
      "fic": 619,
      "appe": 620,
      "ult": 621,
      "two": 622,
      "sky": 623,
      "em": 624,
      "gu": 625,
      "sin": 626,
      "son": 627,
      "ark": 628,
      "ents": 629,
      "weap": 630,
      "god": 631,
      "prote": 632,
      "earth": 633,
      "lotus": 634,
      "इत्यार्षे": 635,
      "dom": 636,
      "kin": 637,
      "oking": 638,
      "went": 639,
      "anim": 640,
      "towar": 641,
      "cha": 642,
      "place": 643,
      "flowers": 644,
      "face": 645,
      "mind": 646,
      "pped": 647,
      "oud": 648,
      "shar": 649,
      "ried": 650,
      "towards": 651,
      "With": 652,
      "those": 653,
      "ans": 654,
      "ret": 655,
      "ering": 656,
      "ass": 657,
      "amp": 658,
      "ared": 659,
      "blood": 660,
      "Mari": 661,
      "Se": 662,
      "Su": 663,
      "fru": 664,
      "gi": 665,
      "ining": 666,
      "ata": 667,
      "owing": 668,
      "wom": 669,
      "ating": 670,
      "dev": 671,
      "tell": 672,
      "atha": 673,
      "Maricha": 674,
      "Who": 675,
      "ps": 676,
      "took": 677,
      "what": 678,
      "river": 679,
      "phant": 680,
      "ces": 681,
      "den": 682,
      "gth": 683,
      "ies": 684,
      "jo": 685,
      "led": 686,
      "sl": 687,
      "ort": 688,
      "ching": 689,
      "cont": 690,
      "huge": 691,
      "elephant": 692,
      "aus": 693,
      "eing": 694,
      "four": 695,
      "won": 696,
      "rep": 697,
      "army": 698,
      "stren": 699,
      "ressed": 700,
      "while": 701,
      "strength": 702,
      "Das": 703,
      "On": 704,
      "band": 705,
      "just": 706,
      "ue": 707,
      "asce": 708,
      "ite": 709,
      "race": 710,
      "kingdom": 711,
      "golden": 712,
      "sharp": 713,
      "ascetic": 714,
      "Dand": 715,
      "Whi": 716,
      "cons": 717,
      "creat": 718,
      "eld": 719,
      "hus": 720,
      "ig": 721,
      "ily": 722,
      "may": 723,
      "sto": 724,
      "thous": 725,
      "only": 726,
      "asth": 727,
      "shining": 728,
      "weapons": 729,
      "Dandaka": 730,
      "husband": 731,
      "Ag": 732,
      "ged": 733,
      "ms": 734,
      "शस्सर्गः": 735,
      "looking": 736,
      "princess": 737,
      "His": 738,
      "Ra": 739,
      "could": 740,
      "daught": 741,
      "ill": 742,
      "lds": 743,
      "ought": 744,
      "aking": 745,
      "shi": 746,
      "get": 747,
      "accom": 748,
      "Seeing": 749,
      "cru": 750,
      "pic": 751,
      "wish": 752,
      "heav": 753,
      "live": 754,
      "worlds": 755,
      "arms": 756,
      "penance": 757,
      "joy": 758,
      "While": 759,
      "Having": 760,
      "gar": 761,
      "round": 762,
      "three": 763,
      "ings": 764,
      "filled": 765,
      "tered": 766,
      "dist": 767,
      "idehi": 768,
      "grief": 769,
      "Janasth": 770,
      "Vaidehi": 771,
      "astya": 772,
      "na": 773,
      "pt": 774,
      "sor": 775,
      "sur": 776,
      "val": 777,
      "ya": 778,
      "delight": 779,
      "hel": 780,
      "leas": 781,
      "chi": 782,
      "strong": 783,
      "fruits": 784,
      "daughter": 785,
      "Janasthana": 786,
      "As": 787,
      "If": 788,
      "Sur": 789,
      "batt": 790,
      "hor": 791,
      "med": 792,
      "ran": 793,
      "thus": 794,
      "though": 795,
      "rest": 796,
      "ask": 797,
      "foll": 798,
      "They": 799,
      "father": 800,
      "wonder": 801,
      "Bhar": 802,
      "but": 803,
      "ev": 804,
      "fall": 805,
      "how": 806,
      "ksh": 807,
      "ment": 808,
      "ople": 809,
      "pi": 810,
      "thr": 811,
      "then": 812,
      "dear": 813,
      "fell": 814,
      "entered": 815,
      "hold": 816,
      "pos": 817,
      "tree": 818,
      "qui": 819,
      "Agastya": 820,
      "sorrow": 821,
      "Bharata": 822,
      "mis": 823,
      "ner": 824,
      "sen": 825,
      "rea": 826,
      "aring": 827,
      "aratha": 828,
      "hero": 829,
      "good": 830,
      "such": 831,
      "dire": 832,
      "armed": 833,
      "desi": 834,
      "heard": 835,
      "beings": 836,
      "Ragh": 837,
      "mbl": 838,
      "ng": 839,
      "known": 840,
      "animals": 841,
      "battle": 842,
      "Ka": 843,
      "brah": 844,
      "coun": 845,
      "got": 846,
      "lar": 847,
      "many": 848,
      "ob": 849,
      "rad": 850,
      "young": 851,
      "whose": 852,
      "back": 853,
      "hand": 854,
      "take": 855,
      "stru": 856,
      "akha": 857,
      "belo": 858,
      "char": 859,
      "ally": 860,
      "does": 861,
      "cannot": 862,
      "anka": 863,
      "panakha": 864,
      "deeds": 865,
      "Dasaratha": 866,
      "Surpanakha": 867,
      "brahmin": 868,
      "beloved": 869,
      "Lanka": 870,
      "bu": 871,
      "ber": 872,
      "ever": 873,
      "fright": 874,
      "ice": 875,
      "ris": 876,
      "sing": 877,
      "ures": 878,
      "would": 879,
      "dead": 880,
      "living": 881,
      "left": 882,
      "seen": 883,
      "feren": 884,
      "rain": 885,
      "fight": 886,
      "people": 887,
      "harma": 888,
      "powerful": 889,
      "truth": 890,
      "age": 891,
      "dharma": 892,
      "ight": 893,
      "ken": 894,
      "mon": 895,
      "ning": 896,
      "run": 897,
      "releas": 898,
      "liant": 899,
      "alone": 900,
      "also": 901,
      "differen": 902,
      "),": 903,
      "Dus": 904,
      "She": 905,
      "oon": 906,
      "sou": 907,
      "twe": 908,
      "thunder": 909,
      "add": 910,
      "und": 911,
      "appro": 912,
      "mies": 913,
      "Janaka": 914,
      "protect": 915,
      "woman": 916,
      "auspic": 917,
      "through": 918,
      "Dusana": 919,
      "auspicious": 920,
      "Vir": 921,
      "hit": 922,
      "nor": 923,
      "pit": 924,
      "path": 925,
      "adha": 926,
      "tig": 927,
      "irt": 928,
      "fort": 929,
      "fered": 930,
      "ters": 931,
      "demoness": 932,
      "anga": 933,
      "rying": 934,
      "carried": 935,
      "enemy": 936,
      "enemies": 937,
      "ations": 938,
      "thousand": 939,
      "Viradha": 940,
      "Moon": 941,
      "Pamp": 942,
      "aw": 943,
      "cti": 944,
      "cap": 945,
      "gent": 946,
      "hum": 947,
      "ikey": 948,
      "pon": 949,
      "spo": 950,
      "virt": 951,
      "offered": 952,
      "owed": 953,
      "comple": 954,
      "due": 955,
      "most": 956,
      "seeing": 957,
      "made": 958,
      "kinds": 959,
      "heaven": 960,
      "Kaikey": 961,
      "Pampa": 962,
      "Kaikeyi": 963,
      "An": 964,
      "My": 965,
      "bright": 966,
      "born": 967,
      "cro": 968,
      "did": 969,
      "ling": 970,
      "ned": 971,
      "wa": 972,
      "ying": 973,
      "ंशस्सर्गः": 974,
      "िंशस्सर्गः": 975,
      "rem": 976,
      "once": 977,
      "lim": 978,
      "sear": 979,
      "ots": 980,
      "vered": 981,
      "teen": 982,
      "ished": 983,
      "cked": 984,
      "orned": 985,
      "valiant": 986,
      "diffic": 987,
      "contro": 988,
      "frighten": 989,
      "bol": 990,
      "clo": 991,
      "call": 992,
      "ded": 993,
      "dar": 994,
      "fam": 995,
      "fac": 996,
      "oice": 997,
      "some": 998,
      "wind": 999,
      "thin": 1000,
      "thing": 1001,
      "andhar": 1002,
      "assu": 1003,
      "deep": 1004,
      "stay": 1005,
      "sacri": 1006,
      "tim": 1007,
      "tears": 1008,
      "ears": 1009,
      "stood": 1010,
      "How": 1011,
      "Sar": 1012,
      "burn": 1013,
      "cut": 1014,
      "dark": 1015,
      "eat": 1016,
      "tor": 1017,
      "vult": 1018,
      "thir": 1019,
      "inten": 1020,
      "ised": 1021,
      "rior": 1022,
      "rage": 1023,
      "fici": 1024,
      "warrior": 1025,
      "fully": 1026,
      "mountains": 1027,
      "night": 1028,
      "handsome": 1029,
      "ascetics": 1030,
      "wonderful": 1031,
      "large": 1032,
      "different": 1033,
      "Des": 1034,
      "Mith": 1035,
      "cle": 1036,
      "col": 1037,
      "dro": 1038,
      "gandhar": 1039,
      "hur": 1040,
      "ied": 1041,
      "turn": 1042,
      "voice": 1043,
      "enjoy": 1044,
      "stand": 1045,
      "lied": 1046,
      "pect": 1047,
      "harsh": 1048,
      "ick": 1049,
      "more": 1050,
      "moon": 1051,
      "ila": 1052,
      "hair": 1053,
      "ways": 1054,
      "cloud": 1055,
      "hearing": 1056,
      "happy": 1057,
      "devot": 1058,
      "elephants": 1059,
      "replied": 1060,
      "horses": 1061,
      "holding": 1062,
      "desire": 1063,
      "brahmins": 1064,
      "released": 1065,
      "thunderbol": 1066,
      "Mithila": 1067,
      "Be": 1068,
      "bre": 1069,
      "fri": 1070,
      "iance": 1071,
      "les": 1072,
      "mit": 1073,
      "vas": 1074,
      "vic": 1075,
      "wand": 1076,
      "inv": 1077,
      "oured": 1078,
      "ary": 1079,
      "sea": 1080,
      "sembl": 1081,
      "tire": 1082,
      "food": 1083,
      "going": 1084,
      "terri": 1085,
      "killing": 1086,
      "div": 1087,
      "angry": 1088,
      "brothers": 1089,
      "six": 1090,
      "charac": 1091,
      "thunderbolt": 1092,
      "Vide": 1093,
      "cer": 1094,
      "drin": 1095,
      "ell": 1096,
      "hon": 1097,
      "ka": 1098,
      "mat": 1099,
      "pre": 1100,
      "pri": 1101,
      "sil": 1102,
      "van": 1103,
      "wise": 1104,
      "erce": 1105,
      "ist": 1106,
      "eng": 1107,
      "itu": 1108,
      "ition": 1109,
      "star": 1110,
      "shed": 1111,
      "betwe": 1112,
      "adorned": 1113,
      "loy": 1114,
      "enty": 1115,
      "high": 1116,
      "broken": 1117,
      "perform": 1118,
      "griva": 1119,
      "speak": 1120,
      "destroyed": 1121,
      "evil": 1122,
      "And": 1123,
      "Videha": 1124,
      "between": 1125,
      "Al": 1126,
      "bs": 1127,
      "bri": 1128,
      "eth": 1129,
      "ile": 1130,
      "pal": 1131,
      "pres": 1132,
      "pass": 1133,
      "swi": 1134,
      "want": 1135,
      "dered": 1136,
      "lif": 1137,
      "akut": 1138,
      "aves": 1139,
      "gems": 1140,
      "cks": 1141,
      "beauty": 1142,
      "serp": 1143,
      "lovely": 1144,
      "appeared": 1145,
      "Sugriva": 1146,
      "give": 1147,
      "help": 1148,
      "spoke": 1149,
      "character": 1150,
      "To": 1151,
      "Yama": 1152,
      "find": 1153,
      "hanga": 1154,
      "je": 1155,
      "pa": 1156,
      "ption": 1157,
      "ron": 1158,
      "sal": 1159,
      "swe": 1160,
      "use": 1161,
      "vari": 1162,
      "outh": 1163,
      "entire": 1164,
      "attered": 1165,
      "wild": 1166,
      "amed": 1167,
      "aments": 1168,
      "ited": 1169,
      "shall": 1170,
      "whom": 1171,
      "fierce": 1172,
      "worshi": 1173,
      "move": 1174,
      "aged": 1175,
      "quick": 1176,
      "sible": 1177,
      "noble": 1178,
      "What": 1179,
      "others": 1180,
      "righteousness": 1181,
      "keys": 1182,
      "abducted": 1183,
      "return": 1184,
      "rounded": 1185,
      "addressed": 1186,
      "complex": 1187,
      "difficult": 1188,
      "gandharvas": 1189,
      "Brah": 1190,
      "Just": 1191,
      "Ku": 1192,
      "bank": 1193,
      "dy": 1194,
      "day": 1195,
      "ike": 1196,
      "mom": 1197,
      "name": 1198,
      "pers": 1199,
      "sid": 1200,
      "orious": 1201,
      "ities": 1202,
      "state": 1203,
      "akes": 1204,
      "beh": 1205,
      "ceed": 1206,
      "feet": 1207,
      "aband": 1208,
      "abhanga": 1209,
      "iding": 1210,
      "oked": 1211,
      "Your": 1212,
      "mother": 1213,
      "sub": 1214,
      "sure": 1215,
      "eyed": 1216,
      "happily": 1217,
      "panied": 1218,
      "appear": 1219,
      "fourteen": 1220,
      "cruel": 1221,
      "delightful": 1222,
      "senses": 1223,
      "direction": 1224,
      "Sarabhanga": 1225,
      "ficial": 1226,
      "divine": 1227,
      "lifted": 1228,
      "moment": 1229,
      "Even": 1230,
      "We": 1231,
      "Where": 1232,
      "bed": 1233,
      "city": 1234,
      "gone": 1235,
      "grace": 1236,
      "lt": 1237,
      "make": 1238,
      "mouth": 1239,
      "prow": 1240,
      "sth": 1241,
      "zing": 1242,
      "मस्सर्गः": 1243,
      "another": 1244,
      "resembl": 1245,
      "attain": 1246,
      "wield": 1247,
      "itting": 1248,
      "lion": 1249,
      "alth": 1250,
      "always": 1251,
      "before": 1252,
      "chest": 1253,
      "cei": 1254,
      "sac": 1255,
      "ira": 1256,
      "abari": 1257,
      "act": 1258,
      "uring": 1259,
      "respect": 1260,
      "proceed": 1261,
      "renched": 1262,
      "side": 1263,
      "chariote": 1264,
      "ornaments": 1265,
      "covered": 1266,
      "offering": 1267,
      "Thereafter": 1268,
      "glowing": 1269,
      "headed": 1270,
      "lotuses": 1271,
      "valour": 1272,
      "possible": 1273,
      "count": 1274,
      "bera": 1275,
      "soul": 1276,
      "think": 1277,
      "friend": 1278,
      "brill": 1279,
      "passion": 1280,
      "complexion": 1281,
      "Kubera": 1282,
      "prowess": 1283,
      "'.": 1284,
      "God": 1285,
      "Kakut": 1286,
      "Let": 1287,
      "bes": 1288,
      "ding": 1289,
      "done": 1290,
      "dwell": 1291,
      "far": 1292,
      "having": 1293,
      "hund": 1294,
      "iant": 1295,
      "lust": 1296,
      "nat": 1297,
      "put": 1298,
      "ras": 1299,
      "swords": 1300,
      "task": 1301,
      "uous": 1302,
      "ष्": 1303,
      "्च": 1304,
      "thi": 1305,
      "than": 1306,
      "thought": 1307,
      "anch": 1308,
      "rel": 1309,
      "refu": 1310,
      "oub": 1311,
      "arri": 1312,
      "toge": 1313,
      "stri": 1314,
      "let": 1315,
      "aken": 1316,
      "set": 1317,
      "avari": 1318,
      "used": 1319,
      "fold": 1320,
      "word": 1321,
      "coming": 1322,
      "himself": 1323,
      "grass": 1324,
      "deser": 1325,
      "never": 1326,
      "longarmed": 1327,
      "vice": 1328,
      "scion": 1329,
      "cription": 1330,
      "minded": 1331,
      "accompl": 1332,
      "accompanied": 1333,
      "garden": 1334,
      "surrounded": 1335,
      "fallen": 1336,
      "kshna": 1337,
      "pier": 1338,
      "Raghu": 1339,
      "control": 1340,
      "Description": 1341,
      "started": 1342,
      "loyal": 1343,
      "swift": 1344,
      "sweet": 1345,
      "sacred": 1346,
      "charioteer": 1347,
      "Kakutsth": 1348,
      "together": 1349,
      "By": 1350,
      "Kaband": 1351,
      "big": 1352,
      "cing": 1353,
      "cau": 1354,
      "fron": 1355,
      "kar": 1356,
      "land": 1357,
      "op": 1358,
      "pra": 1359,
      "prom": 1360,
      "sy": 1361,
      "tra": 1362,
      "vis": 1363,
      "incl": 1364,
      "isten": 1365,
      "too": 1366,
      "dec": 1367,
      "roots": 1368,
      "leaving": 1369,
      "saying": 1370,
      "tikshna": 1371,
      "lying": 1372,
      "wealth": 1373,
      "worth": 1374,
      "rown": 1375,
      "exile": 1376,
      "ready": 1377,
      "heart": 1378,
      "against": 1379,
      "abduct": 1380,
      "Sutikshna": 1381,
      "women": 1382,
      "created": 1383,
      "approa": 1384,
      "turned": 1385,
      "devotion": 1386,
      "Godavari": 1387,
      "folded": 1388,
      "Kabandha": 1389,
      "Her": 1390,
      "Lord": 1391,
      "Like": 1392,
      "Sh": 1393,
      "Vis": 1394,
      "cou": 1395,
      "cur": 1396,
      "cious": 1397,
      "drenched": 1398,
      "every": 1399,
      "flo": 1400,
      "gave": 1401,
      "ks": 1402,
      "mid": 1403,
      "near": 1404,
      "oth": 1405,
      "pu": 1406,
      "pure": 1407,
      "sw": 1408,
      "tou": 1409,
      "tar": 1410,
      "ञ्च": 1411,
      "त्र": 1412,
      "पञ्च": 1413,
      "iness": 1414,
      "order": 1415,
      "ash": 1416,
      "wicked": 1417,
      "aming": 1418,
      "stre": 1419,
      "leave": 1420,
      "white": 1421,
      "mean": 1422,
      "wearing": 1423,
      "fif": 1424,
      "ounds": 1425,
      "pet": 1426,
      "ress": 1427,
      "proper": 1428,
      "ately": 1429,
      "bows": 1430,
      "soon": 1431,
      "Why": 1432,
      "viol": 1433,
      "bring": 1434,
      "abduction": 1435,
      "sinful": 1436,
      "given": 1437,
      "reached": 1438,
      "remain": 1439,
      "called": 1440,
      "sacrificial": 1441,
      "clear": 1442,
      "colour": 1443,
      "engaged": 1444,
      "quickly": 1445,
      "ष्ट": 1446,
      "cause": 1447,
      "worthy": 1448,
      ".'": 1449,
      "Now": 1450,
      "Tris": 1451,
      "ban": 1452,
      "bly": 1453,
      "loud": 1454,
      "mu": 1455,
      "nasty": 1456,
      "old": 1457,
      "pas": 1458,
      "ss": 1459,
      "spl": 1460,
      "tri": 1461,
      "तमस्सर्गः": 1462,
      "indeed": 1463,
      "ouds": 1464,
      "around": 1465,
      "ory": 1466,
      "wives": 1467,
      "defe": 1468,
      "ava": 1469,
      "bell": 1470,
      "advan": 1471,
      "safe": 1472,
      "felt": 1473,
      "fig": 1474,
      "fied": 1475,
      "aces": 1476,
      "action": 1477,
      "teeth": 1478,
      "tering": 1479,
      "That": 1480,
      "fles": 1481,
      "clouds": 1482,
      "bird": 1483,
      "destru": 1484,
      "glorious": 1485,
      "uding": 1486,
      "asked": 1487,
      "pie": 1488,
      "monkeys": 1489,
      "tigers": 1490,
      "ctions": 1491,
      "gentle": 1492,
      "human": 1493,
      "limbs": 1494,
      "search": 1495,
      "frightening": 1496,
      "eaten": 1497,
      "vulture": 1498,
      "wandering": 1499,
      "dynasty": 1500,
      "behind": 1501,
      "refuge": 1502,
      "pierced": 1503,
      "front": 1504,
      "including": 1505,
      "Af": 1506,
      "But": 1507,
      "Lo": 1508,
      "Vi": 1509,
      "cal": 1510,
      "doub": 1511,
      "equ": 1512,
      "fish": 1513,
      "free": 1514,
      "lake": 1515,
      "must": 1516,
      "ode": 1517,
      "past": 1518,
      "sper": 1519,
      "sword": 1520,
      "wn": 1521,
      "years": 1522,
      "ितमस्सर्गः": 1523,
      "inted": 1524,
      "eri": 1525,
      "isters": 1526,
      "top": 1527,
      "iting": 1528,
      "lier": 1529,
      "lived": 1530,
      "sel": 1531,
      "separ": 1532,
      "alk": 1533,
      "cept": 1534,
      "lost": 1535,
      "feel": 1536,
      "welf": 1537,
      "unable": 1538,
      "work": 1539,
      "acc": 1540,
      "account": 1541,
      "essed": 1542,
      "treme": 1543,
      "produ": 1544,
      "conse": 1545,
      "disci": 1546,
      "bla": 1547,
      "extreme": 1548,
      "aff": 1549,
      "twenty": 1550,
      "glit": 1551,
      "thousands": 1552,
      "distance": 1553,
      "chief": 1554,
      "following": 1555,
      "radiance": 1556,
      "rained": 1557,
      "darts": 1558,
      "burning": 1559,
      "drink": 1560,
      "Alas": 1561,
      "Brahma": 1562,
      "subdu": 1563,
      "courage": 1564,
      "Trisira": 1565,
      "flesh": 1566,
      "destruction": 1567,
      "welfare": 1568,
      "Gar": 1569,
      "bark": 1570,
      "cend": 1571,
      "ei": 1572,
      "fine": 1573,
      "jack": 1574,
      "listen": 1575,
      "mer": 1576,
      "nu": 1577,
      "oid": 1578,
      "sad": 1579,
      "sent": 1580,
      "ta": 1581,
      "wis": 1582,
      "yo": 1583,
      "चत": 1584,
      "प्": 1585,
      "सप्": 1586,
      "ones": 1587,
      "aster": 1588,
      "lling": 1589,
      "itra": 1590,
      "dep": 1591,
      "stret": 1592,
      "leep": 1593,
      "ott": 1594,
      "rious": 1595,
      "omen": 1596,
      "raged": 1597,
      "abode": 1598,
      "five": 1599,
      "figu": 1600,
      "fulfi": 1601,
      "comm": 1602,
      "compar": 1603,
      "forests": 1604,
      "aust": 1605,
      "prosper": 1606,
      "duty": 1607,
      "moving": 1608,
      "cond": 1609,
      "tenheaded": 1610,
      "noose": 1611,
      "formed": 1612,
      "bodies": 1613,
      "need": 1614,
      "neck": 1615,
      "coll": 1616,
      "waters": 1617,
      "bloom": 1618,
      "carrying": 1619,
      "faith": 1620,
      "Therefore": 1621,
      "Vali": 1622,
      "uda": 1623,
      "destroyer": 1624,
      "guise": 1625,
      "rivers": 1626,
      "quiver": 1627,
      "directions": 1628,
      "younger": 1629,
      "struck": 1630,
      "close": 1631,
      "largeeyed": 1632,
      "appearance": 1633,
      "loyalty": 1634,
      "pieces": 1635,
      "After": 1636,
      "Garuda": 1637,
      "comparable": 1638,
      "De": 1639,
      "Sabari": 1640,
      "Tell": 1641,
      "aim": 1642,
      "bra": 1643,
      "crying": 1644,
      "cott": 1645,
      "fin": 1646,
      "fle": 1647,
      "fast": 1648,
      "kind": 1649,
      "lu": 1650,
      "mar": 1651,
      "mity": 1652,
      "open": 1653,
      "pur": 1654,
      "sn": 1655,
      "sion": 1656,
      "sake": 1657,
      "whe": 1658,
      "thro": 1659,
      "anas": 1660,
      "thered": 1661,
      "reve": 1662,
      "erable": 1663,
      "ison": 1664,
      "enmity": 1665,
      "ase": 1666,
      "held": 1667,
      "seas": 1668,
      "avati": 1669,
      "became": 1670,
      "cher": 1671,
      "herds": 1672,
      "kings": 1673,
      "tem": 1674,
      "Here": 1675,
      "duct": 1676,
      "earlier": 1677,
      "peri": 1678,
      "blue": 1679,
      "upon": 1680,
      "hermitages": 1681,
      "chariots": 1682,
      "ministers": 1683,
      "speed": 1684,
      "skin": 1685,
      "attack": 1686,
      "brought": 1687,
      "pleased": 1688,
      "pleasing": 1689,
      "dense": 1690,
      "survi": 1691,
      "horri": 1692,
      "Raghus": 1693,
      "tiger": 1694,
      "fortun": 1695,
      "capable": 1696,
      "virtue": 1697,
      "waist": 1698,
      "family": 1699,
      "assumed": 1700,
      "hurt": 1701,
      "terrific": 1702,
      "certain": 1703,
      "presence": 1704,
      "various": 1705,
      "worshipped": 1706,
      "ceived": 1707,
      "dwelling": 1708,
      "loudly": 1709,
      "doubt": 1710,
      "equal": 1711,
      "erial": 1712,
      "extremely": 1713,
      "सप्त": 1714,
      "cottage": 1715,
      "At": 1716,
      "Both": 1717,
      "En": 1718,
      "For": 1719,
      "Ma": 1720,
      "Mand": 1721,
      "caught": 1722,
      "during": 1723,
      "een": 1724,
      "fer": 1725,
      "kid": 1726,
      "pany": 1727,
      "port": 1728,
      "sons": 1729,
      "smo": 1730,
      "same": 1731,
      "trun": 1732,
      "vak": 1733,
      "एक": 1734,
      "्वा": 1735,
      "instru": 1736,
      "ener": 1737,
      "atri": 1738,
      "iti": 1739,
      "ital": 1740,
      "lic": 1741,
      "lives": 1742,
      "lead": 1743,
      "seven": 1744,
      "sho": 1745,
      "chas": 1746,
      "ghs": 1747,
      "advice": 1748,
      "itable": 1749,
      "ently": 1750,
      "weep": 1751,
      "raid": 1752,
      "foot": 1753,
      "fulgent": 1754,
      "yourself": 1755,
      "haratha": 1756,
      "play": 1757,
      "ward": 1758,
      "ounded": 1759,
      "iled": 1760,
      "die": 1761,
      "conduct": 1762,
      "atever": 1763,
      "tened": 1764,
      "blessed": 1765,
      "exce": 1766,
      "clad": 1767,
      "looks": 1768,
      "mount": 1769,
      "new": 1770,
      "spears": 1771,
      "speaking": 1772,
      "princes": 1773,
      "brave": 1774,
      "pleasure": 1775,
      "since": 1776,
      "protection": 1777,
      "protected": 1778,
      "animal": 1779,
      "slain": 1780,
      "Dasharatha": 1781,
      "single": 1782,
      "ponds": 1783,
      "virtuous": 1784,
      "frightened": 1785,
      "warriors": 1786,
      "dropped": 1787,
      "standing": 1788,
      "victor": 1789,
      "highly": 1790,
      "person": 1791,
      "surely": 1792,
      "nature": 1793,
      "Kakutstha": 1794,
      "much": 1795,
      "advanced": 1796,
      "figure": 1797,
      "blazing": 1798,
      "glittering": 1799,
      "yoj": 1800,
      "figured": 1801,
      "kidn": 1802,
      "Ak": 1803,
      "All": 1804,
      "Go": 1805,
      "So": 1806,
      "ax": 1807,
      "bat": 1808,
      "cre": 1809,
      "cat": 1810,
      "cave": 1811,
      "cry": 1812,
      "caus": 1813,
      "eight": 1814,
      "fal": 1815,
      "gro": 1816,
      "hya": 1817,
      "haust": 1818,
      "la": 1819,
      "ler": 1820,
      "lit": 1821,
      "lands": 1822,
      "law": 1823,
      "ming": 1824,
      "making": 1825,
      "none": 1826,
      "pes": 1827,
      "pite": 1828,
      "rans": 1829,
      "smi": 1830,
      "ssed": 1831,
      "sounds": 1832,
      "sleep": 1833,
      "taking": 1834,
      "wo": 1835,
      "win": 1836,
      "zed": 1837,
      "৷৷": 1838,
      "real": 1839,
      "atten": 1840,
      "ese": 1841,
      "asts": 1842,
      "wit": 1843,
      "ams": 1844,
      "itated": 1845,
      "del": 1846,
      "ste": 1847,
      "stones": 1848,
      "lips": 1849,
      "seated": 1850,
      "second": 1851,
      "show": 1852,
      "ows": 1853,
      "beg": 1854,
      "because": 1855,
      "cho": 1856,
      "keep": 1857,
      "til": 1858,
      "tiv": 1859,
      "tions": 1860,
      "force": 1861,
      "fema": 1862,
      "means": 1863,
      "usion": 1864,
      "una": 1865,
      "aksha": 1866,
      "commit": 1867,
      "combat": 1868,
      "peak": 1869,
      "peace": 1870,
      "resid": 1871,
      "icated": 1872,
      "pose": 1873,
      "pointed": 1874,
      "poison": 1875,
      "plan": 1876,
      "suf": 1877,
      "disfigured": 1878,
      "exhaust": 1879,
      "sig": 1880,
      "nose": 1881,
      "afraid": 1882,
      "umin": 1883,
      "spread": 1884,
      "effulgent": 1885,
      "cool": 1886,
      "scor": 1887,
      "served": 1888,
      "manner": 1889,
      "pleasures": 1890,
      "true": 1891,
      "embra": 1892,
      "guar": 1893,
      "ampana": 1894,
      "fruit": 1895,
      "contin": 1896,
      "kshatri": 1897,
      "sense": 1898,
      "heroic": 1899,
      "bull": 1900,
      "rising": 1901,
      "running": 1902,
      "appropri": 1903,
      "times": 1904,
      "vultures": 1905,
      "silver": 1906,
      "evilminded": 1907,
      "palms": 1908,
      "serpent": 1909,
      "serpents": 1910,
      "pale": 1911,
      "sides": 1912,
      "resembling": 1913,
      "brilliant": 1914,
      "hundred": 1915,
      "sym": 1916,
      "approached": 1917,
      "swans": 1918,
      "touch": 1919,
      "fishes": 1920,
      "accord": 1921,
      "subduer": 1922,
      "fulfil": 1923,
      "excell": 1924,
      "Akampana": 1925,
      "female": 1926,
      "appropriate": 1927,
      "Ad": 1928,
      "Ay": 1929,
      "May": 1930,
      "Panch": 1931,
      "Sum": 1932,
      "ali": 1933,
      "alive": 1934,
      "aerial": 1935,
      "bound": 1936,
      "care": 1937,
      "crem": 1938,
      "dle": 1939,
      "dess": 1940,
      "fra": 1941,
      "hak": 1942,
      "hal": 1943,
      "hun": 1944,
      "hab": 1945,
      "ili": 1946,
      "ible": 1947,
      "ls": 1948,
      "low": 1949,
      "mad": 1950,
      "mace": 1951,
      "mark": 1952,
      "mort": 1953,
      "obl": 1954,
      "pp": 1955,
      "pain": 1956,
      "pil": 1957,
      "taken": 1958,
      "wings": 1959,
      "xed": 1960,
      "yet": 1961,
      "ze": 1962,
      "विंशस्सर्गः": 1963,
      "षष्ट": 1964,
      "ाशस्सर्गः": 1965,
      "ins": 1966,
      "ines": 1967,
      "inci": 1968,
      "reds": 1969,
      "ising": 1970,
      "ened": 1971,
      "atru": 1972,
      "orted": 1973,
      "asa": 1974,
      "ascend": 1975,
      "depar": 1976,
      "role": 1977,
      "stant": 1978,
      "stud": 1979,
      "leaves": 1980,
      "sever": 1981,
      "seers": 1982,
      "shone": 1983,
      "shattered": 1984,
      "ala": 1985,
      "iron": 1986,
      "forci": 1987,
      "mem": 1988,
      "entr": 1989,
      "rable": 1990,
      "idur": 1991,
      "company": 1992,
      "Those": 1993,
      "hope": 1994,
      "broke": 1995,
      "pless": 1996,
      "places": 1997,
      "moved": 1998,
      "conqu": 1999,
      "sight": 2000,
      "ustrious": 2001,
      "knows": 2002,
      "knower": 2003,
      "umb": 2004,
      "endowed": 2005,
      "firm": 2006,
      "wellbeing": 2007,
      "wellknown": 2008,
      "bloss": 2009,
      "shoulders": 2010,
      "prince": 2011,
      "scattered": 2012,
      "happiness": 2013,
      "heads": 2014,
      "emp": 2015,
      "guest": 2016,
      "weapon": 2017,
      "goddess": 2018,
      "devoid": 2019,
      "Whose": 2020,
      "elder": 2021,
      "garlands": 2022,
      "helpless": 2023,
      "medi": 2024,
      "reach": 2025,
      "obtain": 2026,
      "truthful": 2027,
      "pond": 2028,
      "controlled": 2029,
      "famous": 2030,
      "thirty": 2031,
      "intention": 2032,
      "sixty": 2033,
      "honour": 2034,
      "wielder": 2035,
      "thighs": 2036,
      "accomplished": 2037,
      "Visnu": 2038,
      "flocks": 2039,
      "त्रिंशस्सर्गः": 2040,
      "पञ्चाशस्सर्गः": 2041,
      "calam": 2042,
      "command": 2043,
      "certainly": 2044,
      "weeping": 2045,
      "creep": 2046,
      "excellent": 2047,
      "Sumitra": 2048,
      "incible": 2049,
      "studded": 2050,
      "several": 2051,
      "forcibly": 2052,
      "blossom": 2053,
      "',": 2054,
      "Do": 2055,
      "Iksh": 2056,
      "Over": 2057,
      "Sin": 2058,
      "Vat": 2059,
      "ba": 2060,
      "bhis": 2061,
      "bad": 2062,
      "cr": 2063,
      "che": 2064,
      "caves": 2065,
      "dhas": 2066,
      "dried": 2067,
      "ect": 2068,
      "ety": 2069,
      "fat": 2070,
      "fav": 2071,
      "fame": 2072,
      "gged": 2073,
      "hes": 2074,
      "ku": 2075,
      "ked": 2076,
      "lap": 2077,
      "pr": 2078,
      "rang": 2079,
      "rings": 2080,
      "sand": 2081,
      "sis": 2082,
      "sat": 2083,
      "save": 2084,
      "sound": 2085,
      "tle": 2086,
      "tank": 2087,
      "trad": 2088,
      "xicated": 2089,
      "रिंशस्सर्गः": 2090,
      "anx": 2091,
      "intell": 2092,
      "inary": 2093,
      "rew": 2094,
      "reed": 2095,
      "ender": 2096,
      "encoun": 2097,
      "ors": 2098,
      "told": 2099,
      "deities": 2100,
      "roared": 2101,
      "roaring": 2102,
      "robes": 2103,
      "step": 2104,
      "stars": 2105,
      "lions": 2106,
      "licted": 2107,
      "within": 2108,
      "bear": 2109,
      "bears": 2110,
      "whatever": 2111,
      "tial": 2112,
      "fun": 2113,
      "loped": 2114,
      "mere": 2115,
      "enter": 2116,
      "compassion": 2117,
      "api": 2118,
      "forehead": 2119,
      "odhya": 2120,
      "ruth": 2121,
      "veloped": 2122,
      "residing": 2123,
      "mil": 2124,
      "milar": 2125,
      "venerable": 2126,
      "ility": 2127,
      "agitated": 2128,
      "queen": 2129,
      "flag": 2130,
      "cken": 2131,
      "ordinary": 2132,
      "eye": 2133,
      "birth": 2134,
      "spots": 2135,
      "vaidur": 2136,
      "cold": 2137,
      "mine": 2138,
      "nific": 2139,
      "lessly": 2140,
      "branch": 2141,
      "string": 2142,
      "cried": 2143,
      "telling": 2144,
      "slender": 2145,
      "illustrious": 2146,
      "ship": 2147,
      "distressed": 2148,
      "distress": 2149,
      "poss": 2150,
      "mission": 2151,
      "piteous": 2152,
      "demonesses": 2153,
      "torment": 2154,
      "hurled": 2155,
      "invincible": 2156,
      "terrible": 2157,
      "honoured": 2158,
      "jected": 2159,
      "salut": 2160,
      "siddhas": 2161,
      "attained": 2162,
      "brilliance": 2163,
      "lustre": 2164,
      "strike": 2165,
      "decor": 2166,
      "fifty": 2167,
      "passed": 2168,
      "Vibhis": 2169,
      "produced": 2170,
      "either": 2171,
      "omens": 2172,
      "horripil": 2173,
      "trunk": 2174,
      "्वारिंशस्सर्गः": 2175,
      "false": 2176,
      "smile": 2177,
      "stead": 2178,
      "scorcher": 2179,
      "Ayodhya": 2180,
      "Panchavati": 2181,
      "fragr": 2182,
      "षष्टितमस्सर्गः": 2183,
      "Ikshvak": 2184,
      "Vatapi": 2185,
      "sister": 2186,
      "tradition": 2187,
      "Hence": 2188,
      "No": 2189,
      "Or": 2190,
      "One": 2191,
      "Si": 2192,
      "Sau": 2193,
      "ade": 2194,
      "ach": 2195,
      "achi": 2196,
      "bing": 2197,
      "cit": 2198,
      "cir": 2199,
      "da": 2200,
      "equi": 2201,
      "fit": 2202,
      "fro": 2203,
      "gant": 2204,
      "garm": 2205,
      "ive": 2206,
      "jit": 2207,
      "ldered": 2208,
      "mag": 2209,
      "morn": 2210,
      "named": 2211,
      "oce": 2212,
      "pious": 2213,
      "ring": 2214,
      "ror": 2215,
      "rong": 2216,
      "ravana": 2217,
      "sol": 2218,
      "sitting": 2219,
      "trans": 2220,
      "ues": 2221,
      "ush": 2222,
      "ured": 2223,
      "uka": 2224,
      "vast": 2225,
      "walk": 2226,
      "yed": 2227,
      "yas": 2228,
      "yoked": 2229,
      "anu": 2230,
      "ange": 2231,
      "ined": 2232,
      "inter": 2233,
      "infl": 2234,
      "thes": 2235,
      "received": 2236,
      "arna": 2237,
      "ences": 2238,
      "enqui": 2239,
      "enraged": 2240,
      "orph": 2241,
      "asu": 2242,
      "tow": 2243,
      "tops": 2244,
      "today": 2245,
      "deers": 2246,
      "delic": 2247,
      "lies": 2248,
      "leaf": 2249,
      "shot": 2250,
      "shower": 2251,
      "aloud": 2252,
      "become": 2253,
      "ches": 2254,
      "why": 2255,
      "ghna": 2256,
      "celes": 2257,
      "kept": 2258,
      "tied": 2259,
      "ties": 2260,
      "tight": 2261,
      "forty": 2262,
      "forward": 2263,
      "lopes": 2264,
      "fulfilled": 2265,
      "actions": 2266,
      "apsar": 2267,
      "ury": 2268,
      "resc": 2269,
      "cts": 2270,
      "ctar": 2271,
      "These": 2272,
      "hosp": 2273,
      "trembl": 2274,
      "anything": 2275,
      "prov": 2276,
      "uttered": 2277,
      "suc": 2278,
      "suitable": 2279,
      "ilt": 2280,
      "quent": 2281,
      "earrings": 2282,
      "pert": 2283,
      "perish": 2284,
      "tender": 2285,
      "sions": 2286,
      "umed": 2287,
      "ultim": 2288,
      "boons": 2289,
      "evening": 2290,
      "spir": 2291,
      "nectar": 2292,
      "Indrajit": 2293,
      "spear": 2294,
      "elds": 2295,
      "scre": 2296,
      "royal": 2297,
      "fearful": 2298,
      "wherever": 2299,
      "lightning": 2300,
      "appears": 2301,
      "slay": 2302,
      "fourth": 2303,
      "creatures": 2304,
      "crushed": 2305,
      "restrained": 2306,
      "followed": 2307,
      "fellow": 2308,
      "reaching": 2309,
      "heroes": 2310,
      "radiant": 2311,
      "searching": 2312,
      "faced": 2313,
      "third": 2314,
      "coloured": 2315,
      "drops": 2316,
      "mitri": 2317,
      "sixth": 2318,
      "performed": 2319,
      "worship": 2320,
      "banks": 2321,
      "proceeded": 2322,
      "hundreds": 2323,
      "arrived": 2324,
      "stricken": 2325,
      "deserve": 2326,
      "accomplish": 2327,
      "karni": 2328,
      "promise": 2329,
      "midst": 2330,
      "middle": 2331,
      "defeat": 2332,
      "belly": 2333,
      "Looking": 2334,
      "consecr": 2335,
      "discipl": 2336,
      "afflicted": 2337,
      "tail": 2338,
      "wisdom": 2339,
      "prosperous": 2340,
      "faithful": 2341,
      "flew": 2342,
      "luck": 2343,
      "throat": 2344,
      "itality": 2345,
      "kidnap": 2346,
      "witness": 2347,
      "half": 2348,
      "oblations": 2349,
      "atrughna": 2350,
      "ascended": 2351,
      "conquered": 2352,
      "calamity": 2353,
      "creepers": 2354,
      "Since": 2355,
      "hesit": 2356,
      "kusa": 2357,
      "encounter": 2358,
      "vaidurya": 2359,
      "Saumitri": 2360,
      "equipped": 2361,
      "morning": 2362,
      "deerskin": 2363,
      "delicate": 2364,
      "celestial": 2365,
      "hospitality": 2366,
      "Han": 2367,
      "Il": 2368,
      "Mat": 2369,
      "Out": 2370,
      "Pe": 2371,
      "Power": 2372,
      "Re": 2373,
      "Right": 2374,
      "Un": 2375,
      "Var": 2376,
      "bath": 2377,
      "don": 2378,
      "dri": 2379,
      "dry": 2380,
      "eag": 2381,
      "eating": 2382,
      "found": 2383,
      "grow": 2384,
      "hana": 2385,
      "hot": 2386,
      "home": 2387,
      "knew": 2388,
      "lter": 2389,
      "lau": 2390,
      "mant": 2391,
      "mend": 2392,
      "ns": 2393,
      "nar": 2394,
      "ners": 2395,
      "rama": 2396,
      "sity": 2397,
      "wav": 2398,
      "wrong": 2399,
      "yi": 2400,
      "yam": 2401,
      "अष्ट": 2402,
      "ances": 2403,
      "ini": 2404,
      "inauspicious": 2405,
      "reg": 2406,
      "reas": 2407,
      "repe": 2408,
      "ery": 2409,
      "ond": 2410,
      "ara": 2411,
      "arro": 2412,
      "arters": 2413,
      "often": 2414,
      "ates": 2415,
      "orous": 2416,
      "orting": 2417,
      "ordered": 2418,
      "asy": 2419,
      "assa": 2420,
      "wildered": 2421,
      "ament": 2422,
      "itary": 2423,
      "dece": 2424,
      "stra": 2425,
      "still": 2426,
      "staff": 2427,
      "shout": 2428,
      "short": 2429,
      "aled": 2430,
      "already": 2431,
      "altar": 2432,
      "bef": 2433,
      "ghing": 2434,
      "ado": 2435,
      "say": 2436,
      "gets": 2437,
      "loving": 2438,
      "fea": 2439,
      "feed": 2440,
      "fection": 2441,
      "met": 2442,
      "ung": 2443,
      "fice": 2444,
      "fixed": 2445,
      "ident": 2446,
      "hill": 2447,
      "hips": 2448,
      "comfort": 2449,
      "aco": 2450,
      "accept": 2451,
      "odari": 2452,
      "urbed": 2453,
      "terror": 2454,
      "ested": 2455,
      "ants": 2456,
      "hastened": 2457,
      "seeking": 2458,
      "indic": 2459,
      "quences": 2460,
      "quarters": 2461,
      "permission": 2462,
      "flaming": 2463,
      "olate": 2464,
      "imp": 2465,
      "nothing": 2466,
      "knowled": 2467,
      "orders": 2468,
      "affection": 2469,
      "clust": 2470,
      "uman": 2471,
      "armour": 2472,
      "shelter": 2473,
      "ending": 2474,
      "desolate": 2475,
      "intoxicated": 2476,
      "themsel": 2477,
      "effort": 2478,
      "watching": 2479,
      "mightyarmed": 2480,
      "vile": 2481,
      "carry": 2482,
      "uded": 2483,
      "serve": 2484,
      "serious": 2485,
      "ement": 2486,
      "sinner": 2487,
      "consid": 2488,
      "conscious": 2489,
      "consumed": 2490,
      "illumin": 2491,
      "getting": 2492,
      "wishing": 2493,
      "heavy": 2494,
      "vala": 2495,
      "child": 2496,
      "followers": 2497,
      "quiet": 2498,
      "desires": 2499,
      "built": 2500,
      "souther": 2501,
      "ctive": 2502,
      "crossed": 2503,
      "difficul": 2504,
      "clothes": 2505,
      "darling": 2506,
      "assume": 2507,
      "sacrifice": 2508,
      "darkness": 2509,
      "intense": 2510,
      "Despite": 2511,
      "breath": 2512,
      "breasts": 2513,
      "drinking": 2514,
      "matted": 2515,
      "silk": 2516,
      "itual": 2517,
      "Although": 2518,
      "resembled": 2519,
      "wielding": 2520,
      "souls": 2521,
      "bestow": 2522,
      "swiftly": 2523,
      "Kakutsthas": 2524,
      "Shatrughna": 2525,
      "pulled": 2526,
      "meaning": 2527,
      "splin": 2528,
      "consequences": 2529,
      "courageous": 2530,
      "jackal": 2531,
      "चतु": 2532,
      "चत्वारिंशस्सर्गः": 2533,
      "quivers": 2534,
      "purpose": 2535,
      "reveren": 2536,
      "survive": 2537,
      "fortune": 2538,
      "सप्तत": 2539,
      "Mandodari": 2540,
      "instructed": 2541,
      "seventh": 2542,
      "victory": 2543,
      "little": 2544,
      "wood": 2545,
      "embraced": 2546,
      "according": 2547,
      "departed": 2548,
      "decorated": 2549,
      "Vibhishana": 2550,
      "horripilating": 2551,
      "steadfast": 2552,
      "fragrant": 2553,
      "Ikshvaku": 2554,
      "kidnapped": 2555,
      "Hanuman": 2556,
      "Ilvala": 2557,
      "Powerful": 2558,
      "Righteous": 2559,
      "Varuna": 2560,
      "mantras": 2561,
      "themselves": 2562,
      "Chit": 2563,
      "Danu": 2564,
      "Great": 2565,
      "King": 2566,
      "Kad": 2567,
      "Kumb": 2568,
      "Le": 2569,
      "Mer": 2570,
      "Ro": 2571,
      "Rish": 2572,
      "Sp": 2573,
      "aj": 2574,
      "bar": 2575,
      "bent": 2576,
      "bany": 2577,
      "bene": 2578,
      "bations": 2579,
      "bbing": 2580,
      "dru": 2581,
      "danger": 2582,
      "dden": 2583,
      "dying": 2584,
      "eve": 2585,
      "gs": 2586,
      "glad": 2587,
      "hang": 2588,
      "hiding": 2589,
      "ik": 2590,
      "ild": 2591,
      "ized": 2592,
      "lat": 2593,
      "lay": 2594,
      "lve": 2595,
      "mor": 2596,
      "ments": 2597,
      "makes": 2598,
      "master": 2599,
      "nag": 2600,
      "obe": 2601,
      "py": 2602,
      "ping": 2603,
      "pper": 2604,
      "pted": 2605,
      "rat": 2606,
      "ranger": 2607,
      "snow": 2608,
      "tus": 2609,
      "ture": 2610,
      "ued": 2611,
      "wounded": 2612,
      "yaksh": 2613,
      "yell": 2614,
      "zes": 2615,
      "ोन": 2616,
      "things": 2617,
      "thrown": 2618,
      "inking": 2619,
      "inhab": 2620,
      "instant": 2621,
      "reco": 2622,
      "edi": 2623,
      "ert": 2624,
      "ism": 2625,
      "isance": 2626,
      "asho": 2627,
      "ames": 2628,
      "dejected": 2629,
      "rose": 2630,
      "sted": 2631,
      "story": 2632,
      "libations": 2633,
      "sev": 2634,
      "seat": 2635,
      "shap": 2636,
      "shine": 2637,
      "showed": 2638,
      "shines": 2639,
      "alya": 2640,
      "although": 2641,
      "alert": 2642,
      "belong": 2643,
      "bewildered": 2644,
      "rig": 2645,
      "rily": 2646,
      "tieth": 2647,
      "loves": 2648,
      "fet": 2649,
      "wel": 2650,
      "weak": 2651,
      "wept": 2652,
      "foes": 2653,
      "unrighteous": 2654,
      "unchas": 2655,
      "abl": 2656,
      "idable": 2657,
      "idden": 2658,
      "myself": 2659,
      "hib": 2660,
      "thers": 2661,
      "comes": 2662,
      "aci": 2663,
      "rush": 2664,
      "pected": 2665,
      "reated": 2666,
      "terest": 2667,
      "harm": 2668,
      "harness": 2669,
      "tern": 2670,
      "resul": 2671,
      "ical": 2672,
      "icant": 2673,
      "kith": 2674,
      "host": 2675,
      "broad": 2676,
      "plu": 2677,
      "doing": 2678,
      "supre": 2679,
      "ils": 2680,
      "ques": 2681,
      "disaster": 2682,
      "flower": 2683,
      "flames": 2684,
      "Indeed": 2685,
      "black": 2686,
      "experi": 2687,
      "immedi": 2688,
      "sive": 2689,
      "similar": 2690,
      "upid": 2691,
      "knowing": 2692,
      "bowstring": 2693,
      "clan": 2694,
      "claim": 2695,
      "mali": 2696,
      "formidable": 2697,
      "boli": 2698,
      "ithili": 2699,
      "overcome": 2700,
      "spot": 2701,
      "nei": 2702,
      "selfcontrolled": 2703,
      "miner": 2704,
      "shoulder": 2705,
      "scared": 2706,
      "part": 2707,
      "please": 2708,
      "sinless": 2709,
      "kinner": 2710,
      "animate": 2711,
      "repres": 2712,
      "consol": 2713,
      "consort": 2714,
      "creature": 2715,
      "stopped": 2716,
      "follow": 2717,
      "falling": 2718,
      "throne": 2719,
      "obstru": 2720,
      "obedi": 2721,
      "fighting": 2722,
      "month": 2723,
      "difference": 2724,
      "twelve": 2725,
      "aws": 2726,
      "captiv": 2727,
      "humans": 2728,
      "spoken": 2729,
      "waiting": 2730,
      "teenth": 2731,
      "dart": 2732,
      "facing": 2733,
      "thinking": 2734,
      "timid": 2735,
      "break": 2736,
      "vices": 2737,
      "itude": 2738,
      "palm": 2739,
      "days": 2740,
      "persons": 2741,
      "friendship": 2742,
      "relati": 2743,
      "arrival": 2744,
      "gardens": 2745,
      "visit": 2746,
      "Shabari": 2747,
      "curse": 2748,
      "everything": 2749,
      "strewn": 2750,
      "streams": 2751,
      "fifth": 2752,
      "petals": 2753,
      "banana": 2754,
      "Look": 2755,
      "separated": 2756,
      "separation": 2757,
      "disciple": 2758,
      "depressed": 2759,
      "stretched": 2760,
      "prosperity": 2761,
      "married": 2762,
      "snakes": 2763,
      "whether": 2764,
      "Maithili": 2765,
      "smoke": 2766,
      "एकोन": 2767,
      "plays": 2768,
      "yojana": 2769,
      "yojanas": 2770,
      "laid": 2771,
      "delusion": 2772,
      "began": 2773,
      "tilaka": 2774,
      "poisonous": 2775,
      "exhausted": 2776,
      "kshatriyas": 2777,
      "symboli": 2778,
      "hakarna": 2779,
      "empty": 2780,
      "tanks": 2781,
      "nificent": 2782,
      "possess": 2783,
      "magnificent": 2784,
      "enquired": 2785,
      "orphan": 2786,
      "tightly": 2787,
      "apsaras": 2788,
      "rescue": 2789,
      "success": 2790,
      "karnikar": 2791,
      "hesitation": 2792,
      "Matanga": 2793,
      "donkeys": 2794,
      "eager": 2795,
      "mendicant": 2796,
      "yamuka": 2797,
      "reason": 2798,
      "deceit": 2799,
      "straight": 2800,
      "befitting": 2801,
      "knowledge": 2802,
      "consciousness": 2803,
      "southern": 2804,
      "सप्ततितमस्सर्गः": 2805,
      "Kumbhakarna": 2806,
      "Rishyamuka": 2807,
      "banyan": 2808,
      "moral": 2809,
      "pyre": 2810,
      "yellow": 2811,
      "recog": 2812,
      "ashoka": 2813,
      "harnessed": 2814,
      "supreme": 2815,
      "immediately": 2816,
      "Dh": 2817,
      "Fi": 2818,
      "Fo": 2819,
      "Kar": 2820,
      "Know": 2821,
      "Kasy": 2822,
      "Me": 2823,
      "Might": 2824,
      "Nand": 2825,
      "Of": 2826,
      "Oh": 2827,
      "Pau": 2828,
      "Prama": 2829,
      "Ram": 2830,
      "Sy": 2831,
      "Sth": 2832,
      "Sup": 2833,
      "Sachi": 2834,
      "Wind": 2835,
      "ahead": 2836,
      "cas": 2837,
      "cli": 2838,
      "crow": 2839,
      "cour": 2840,
      "cover": 2841,
      "cast": 2842,
      "centr": 2843,
      "dressed": 2844,
      "drew": 2845,
      "elo": 2846,
      "ected": 2847,
      "fas": 2848,
      "fate": 2849,
      "fans": 2850,
      "flying": 2851,
      "gy": 2852,
      "ging": 2853,
      "gress": 2854,
      "gener": 2855,
      "hav": 2856,
      "hap": 2857,
      "hini": 2858,
      "iable": 2859,
      "jum": 2860,
      "kra": 2861,
      "lor": 2862,
      "lvan": 2863,
      "lament": 2864,
      "mas": 2865,
      "mus": 2866,
      "mers": 2867,
      "nin": 2868,
      "oc": 2869,
      "ocious": 2870,
      "pun": 2871,
      "pressed": 2872,
      "sit": 2873,
      "sli": 2874,
      "sme": 2875,
      "sour": 2876,
      "sence": 2877,
      "ssing": 2878,
      "situ": 2879,
      "tas": 2880,
      "twi": 2881,
      "tong": 2882,
      "tum": 2883,
      "takes": 2884,
      "ug": 2885,
      "ual": 2886,
      "uri": 2887,
      "ually": 2888,
      "vorous": 2889,
      "wing": 2890,
      "whel": 2891,
      "yak": 2892,
      "द्": 2893,
      "दशस्सर्गः": 2894,
      "वि": 2895,
      "ante": 2896,
      "int": 2897,
      "indu": 2898,
      "interest": 2899,
      "thetic": 2900,
      "reli": 2901,
      "renow": 2902,
      "requ": 2903,
      "regar": 2904,
      "revered": 2905,
      "remem": 2906,
      "erits": 2907,
      "enh": 2908,
      "attem": 2909,
      "orb": 2910,
      "orig": 2911,
      "aside": 2912,
      "assembl": 2913,
      "amba": 2914,
      "itself": 2915,
      "deformed": 2916,
      "developed": 2917,
      "roam": 2918,
      "root": 2919,
      "stac": 2920,
      "stalk": 2921,
      "liber": 2922,
      "shru": 2923,
      "shake": 2924,
      "showing": 2925,
      "shaken": 2926,
      "alking": 2927,
      "beat": 2928,
      "beak": 2929,
      "chant": 2930,
      "chast": 2931,
      "ghed": 2932,
      "tired": 2933,
      "using": 2934,
      "raining": 2935,
      "raised": 2936,
      "arer": 2937,
      "demerits": 2938,
      "unwav": 2939,
      "ability": 2940,
      "absence": 2941,
      "fick": 2942,
      "filling": 2943,
      "ided": 2944,
      "hers": 2945,
      "worn": 2946,
      "acious": 2947,
      "apa": 2948,
      "ounced": 2949,
      "foresee": 2950,
      "yours": 2951,
      "oding": 2952,
      "rule": 2953,
      "ruler": 2954,
      "pear": 2955,
      "peaco": 2956,
      "rows": 2957,
      "teem": 2958,
      "termin": 2959,
      "ained": 2960,
      "establ": 2961,
      "hood": 2962,
      "oka": 2963,
      "plac": 2964,
      "plant": 2965,
      "duel": 2966,
      "venom": 2967,
      "utated": 2968,
      "supp": 2969,
      "sudden": 2970,
      "wars": 2971,
      "ounding": 2972,
      "ilable": 2973,
      "concer": 2974,
      "tioned": 2975,
      "dislo": 2976,
      "flow": 2977,
      "exten": 2978,
      "exped": 2979,
      "excit": 2980,
      "exhib": 2981,
      "immen": 2982,
      "grou": 2983,
      "mach": 2984,
      "thereafter": 2985,
      "desper": 2986,
      "despic": 2987,
      "overtaken": 2988,
      "spark": 2989,
      "effe": 2990,
      "idered": 2991,
      "wellwis": 2992,
      "cial": 2993,
      "cially": 2994,
      "gathered": 2995,
      "grip": 2996,
      "appre": 2997,
      "else": 2998,
      "understand": 2999,
      "nivorous": 3000,
      "carnivorous": 3001,
      "fair": 3002,
      "glow": 3003,
      "happen": 3004,
      "happened": 3005,
      "parts": 3006,
      "attra": 3007,
      "serving": 3008,
      "brings": 3009,
      "mansions": 3010,
      "strung": 3011,
      "truly": 3012,
      "fices": 3013,
      "sinners": 3014,
      "lotusponds": 3015,
      "lotuspond": 3016,
      "amputated": 3017,
      "devoured": 3018,
      "slow": 3019,
      "slave": 3020,
      "itely": 3021,
      "considered": 3022,
      "stop": 3023,
      "stomach": 3024,
      "illus": 3025,
      "shields": 3026,
      "crush": 3027,
      "wishes": 3028,
      "joyfully": 3029,
      "griefstricken": 3030,
      "lease": 3031,
      "missil": 3032,
      "heroism": 3033,
      "desired": 3034,
      "Raghava": 3035,
      "obstac": 3036,
      "handed": 3037,
      "build": 3038,
      "protector": 3039,
      "pitiable": 3040,
      "aware": 3041,
      "virtues": 3042,
      "searched": 3043,
      "faces": 3044,
      "assuming": 3045,
      "However": 3046,
      "intend": 3047,
      "nightranger": 3048,
      "clean": 3049,
      "devoted": 3050,
      "friends": 3051,
      "wandered": 3052,
      "match": 3053,
      "pathetic": 3054,
      "offerings": 3055,
      "relations": 3056,
      "deserves": 3057,
      "oping": 3058,
      "praise": 3059,
      "promised": 3060,
      "sylvan": 3061,
      "tract": 3062,
      "touched": 3063,
      "target": 3064,
      "violent": 3065,
      "remained": 3066,
      "splend": 3067,
      "defeated": 3068,
      "safety": 3069,
      "merc": 3070,
      "sadly": 3071,
      "collap": 3072,
      "collected": 3073,
      "snake": 3074,
      "period": 3075,
      "attacked": 3076,
      "ferocious": 3077,
      "smooth": 3078,
      "energy": 3079,
      "shook": 3080,
      "victorious": 3081,
      "catch": 3082,
      "caused": 3083,
      "groves": 3084,
      "realised": 3085,
      "attend": 3086,
      "attention": 3087,
      "planet": 3088,
      "continued": 3089,
      "kshatriya": 3090,
      "cremate": 3091,
      "mortal": 3092,
      "entrance": 3093,
      "helplessly": 3094,
      "commanded": 3095,
      "blossoming": 3096,
      "cheer": 3097,
      "favour": 3098,
      "sandal": 3099,
      "anxi": 3100,
      "intellect": 3101,
      "milk": 3102,
      "branches": 3103,
      "piteously": 3104,
      "tormented": 3105,
      "salutations": 3106,
      "garment": 3107,
      "ocean": 3108,
      "solitary": 3109,
      "People": 3110,
      "laughing": 3111,
      "narr": 3112,
      "yield": 3113,
      "repeated": 3114,
      "arrogant": 3115,
      "indicating": 3116,
      "seriously": 3117,
      "consider": 3118,
      "reverence": 3119,
      "Leave": 3120,
      "Meru": 3121,
      "Rohini": 3122,
      "later": 3123,
      "obeisance": 3124,
      "yakshas": 3125,
      "seventy": 3126,
      "fetch": 3127,
      "results": 3128,
      "experien": 3129,
      "neither": 3130,
      "kinneras": 3131,
      "consoled": 3132,
      "obedience": 3133,
      "Kasyapa": 3134,
      "Mighty": 3135,
      "Paul": 3136,
      "Pramathi": 3137,
      "Sthul": 3138,
      "eloquent": 3139,
      "lords": 3140,
      "ninth": 3141,
      "whelmed": 3142,
      "द्वि": 3143,
      "renowned": 3144,
      "origin": 3145,
      "assembled": 3146,
      "shrubs": 3147,
      "unwavering": 3148,
      "fickle": 3149,
      "excitement": 3150,
      "immense": 3151,
      "despicable": 3152,
      "sparkling": 3153,
      "missiles": 3154,
      "obstacles": 3155,
      ":.": 3156,
      "Ac": 3157,
      "Are": 3158,
      "Clad": 3159,
      "Come": 3160,
      "Daksha": 3161,
      "From": 3162,
      "Ho": 3163,
      "Hit": 3164,
      "Kaus": 3165,
      "Mru": 3166,
      "Pro": 3167,
      "Pras": 3168,
      "Push": 3169,
      "Please": 3170,
      "Qu": 3171,
      "Que": 3172,
      "Ru": 3173,
      "Rest": 3174,
      "Rud": 3175,
      "Swe": 3176,
      "Say": 3177,
      "Sure": 3178,
      "Ur": 3179,
      "Ved": 3180,
      "aqu": 3181,
      "ached": 3182,
      "bit": 3183,
      "bal": 3184,
      "bind": 3185,
      "bbed": 3186,
      "bury": 3187,
      "cen": 3188,
      "cus": 3189,
      "cum": 3190,
      "cran": 3191,
      "clim": 3192,
      "drow": 3193,
      "dged": 3194,
      "eved": 3195,
      "echo": 3196,
      "each": 3197,
      "ecli": 3198,
      "fre": 3199,
      "fing": 3200,
      "fli": 3201,
      "fare": 3202,
      "fang": 3203,
      "fering": 3204,
      "fond": 3205,
      "greed": 3206,
      "gested": 3207,
      "haught": 3208,
      "jud": 3209,
      "lof": 3210,
      "lack": 3211,
      "line": 3212,
      "lakes": 3213,
      "lumin": 3214,
      "main": 3215,
      "mut": 3216,
      "mud": 3217,
      "mass": 3218,
      "ny": 3219,
      "ney": 3220,
      "pow": 3221,
      "plo": 3222,
      "pting": 3223,
      "pts": 3224,
      "pati": 3225,
      "ram": 3226,
      "rav": 3227,
      "rous": 3228,
      "rough": 3229,
      "ritu": 3230,
      "san": 3231,
      "sus": 3232,
      "sun": 3233,
      "send": 3234,
      "sought": 3235,
      "slopes": 3236,
      "tall": 3237,
      "torn": 3238,
      "tort": 3239,
      "ution": 3240,
      "uated": 3241,
      "vam": 3242,
      "vow": 3243,
      "vent": 3244,
      "vated": 3245,
      "vised": 3246,
      "vital": 3247,
      "wed": 3248,
      "wes": 3249,
      "wra": 3250,
      "west": 3251,
      "waves": 3252,
      "ys": 3253,
      "यार्ष": 3254,
      "षट": 3255,
      "thor": 3256,
      "ink": 3257,
      "infu": 3258,
      "inac": 3259,
      "inform": 3260,
      "inner": 3261,
      "inning": 3262,
      "inside": 3263,
      "inlaw": 3264,
      "infat": 3265,
      "thed": 3266,
      "reme": 3267,
      "ouse": 3268,
      "ourable": 3269,
      "oned": 3270,
      "ard": 3271,
      "ision": 3272,
      "ists": 3273,
      "isravana": 3274,
      "enough": 3275,
      "entic": 3276,
      "enveloped": 3277,
      "atic": 3278,
      "asol": 3279,
      "wide": 3280,
      "wither": 3281,
      "ami": 3282,
      "amy": 3283,
      "tore": 3284,
      "toler": 3285,
      "dew": 3286,
      "decked": 3287,
      "defin": 3288,
      "dearer": 3289,
      "roll": 3290,
      "roaming": 3291,
      "hered": 3292,
      "stat": 3293,
      "stor": 3294,
      "stone": 3295,
      "stable": 3296,
      "youth": 3297,
      "leap": 3298,
      "aki": 3299,
      "akas": 3300,
      "shown": 3301,
      "aved": 3302,
      "avoid": 3303,
      "bered": 3304,
      "ghth": 3305,
      "rid": 3306,
      "ripe": 3307,
      "rider": 3308,
      "aded": 3309,
      "adver": 3310,
      "advised": 3311,
      "irit": 3312,
      "loc": 3313,
      "logs": 3314,
      "measu": 3315,
      "wet": 3316,
      "wear": 3317,
      "foamy": 3318,
      "unfortun": 3319,
      "until": 3320,
      "unshake": 3321,
      "ably": 3322,
      "redden": 3323,
      "verse": 3324,
      "versed": 3325,
      "goes": 3326,
      "gobl": 3327,
      "wash": 3328,
      "acts": 3329,
      "foremost": 3330,
      "ruled": 3331,
      "rumbl": 3332,
      "rushed": 3333,
      "pelled": 3334,
      "urb": 3335,
      "urred": 3336,
      "teous": 3337,
      "hard": 3338,
      "thatched": 3339,
      "reside": 3340,
      "resses": 3341,
      "resort": 3342,
      "respon": 3343,
      "respected": 3344,
      "oney": 3345,
      "cting": 3346,
      "Thinking": 3347,
      "Through": 3348,
      "greater": 3349,
      "Hearing": 3350,
      "brooding": 3351,
      "plun": 3352,
      "plenty": 3353,
      "doe": 3354,
      "ducks": 3355,
      "iless": 3356,
      "seek": 3357,
      "diam": 3358,
      "agon": 3359,
      "angrily": 3360,
      "conce": 3361,
      "confu": 3362,
      "constant": 3363,
      "confli": 3364,
      "early": 3365,
      "dischar": 3366,
      "permit": 3367,
      "perpet": 3368,
      "tedly": 3369,
      "fless": 3370,
      "flame": 3371,
      "flowing": 3372,
      "olish": 3373,
      "bled": 3374,
      "blowing": 3375,
      "blurred": 3376,
      "excess": 3377,
      "exist": 3378,
      "explo": 3379,
      "blem": 3380,
      "gry": 3381,
      "claws": 3382,
      "ulted": 3383,
      "boon": 3384,
      "dragged": 3385,
      "therefore": 3386,
      "sheep": 3387,
      "endent": 3388,
      "desp": 3389,
      "descend": 3390,
      "despite": 3391,
      "overwhelmed": 3392,
      "span": 3393,
      "spent": 3394,
      "spies": 3395,
      "spike": 3396,
      "sporting": 3397,
      "fullmoon": 3398,
      "otherwise": 3399,
      "selfrestrained": 3400,
      "grieve": 3401,
      "copper": 3402,
      "minds": 3403,
      "spell": 3404,
      "offer": 3405,
      "twang": 3406,
      "apping": 3407,
      "els": 3408,
      "hugged": 3409,
      "humil": 3410,
      "vig": 3411,
      "fail": 3412,
      "fawn": 3413,
      "Valiant": 3414,
      "Vaisravana": 3415,
      "parasol": 3416,
      "fearless": 3417,
      "service": 3418,
      "mango": 3419,
      "lotuse": 3420,
      "cessible": 3421,
      "pleasant": 3422,
      "waterfall": 3423,
      "emer": 3424,
      "emaci": 3425,
      "Without": 3426,
      "retreat": 3427,
      "See": 3428,
      "Such": 3429,
      "giving": 3430,
      "reported": 3431,
      "Once": 3432,
      "justice": 3433,
      "create": 3434,
      "creator": 3435,
      "creation": 3436,
      "eldest": 3437,
      "Rahu": 3438,
      "illusion": 3439,
      "shield": 3440,
      "crucial": 3441,
      "garland": 3442,
      "disturbed": 3443,
      "yaw": 3444,
      "delighted": 3445,
      "strongarmed": 3446,
      "range": 3447,
      "wonderstruck": 3448,
      "event": 3449,
      "evid": 3450,
      "position": 3451,
      "mistakes": 3452,
      "counten": 3453,
      "monkey": 3454,
      "release": 3455,
      "south": 3456,
      "undoub": 3457,
      "ctified": 3458,
      "humbly": 3459,
      "heavenly": 3460,
      "crooked": 3461,
      "crossing": 3462,
      "wailed": 3463,
      "limits": 3464,
      "calling": 3465,
      "facts": 3466,
      "somehow": 3467,
      "stayed": 3468,
      "sacrifices": 3469,
      "burnt": 3470,
      "thirst": 3471,
      "ficient": 3472,
      "drooping": 3473,
      "harshly": 3474,
      "Before": 3475,
      "invited": 3476,
      "matter": 3477,
      "precept": 3478,
      "pride": 3479,
      "shedding": 3480,
      "performing": 3481,
      "pressing": 3482,
      "wants": 3483,
      "jects": 3484,
      "pair": 3485,
      "varie": 3486,
      "variety": 3487,
      "returned": 3488,
      "chests": 3489,
      "ceive": 3490,
      "respects": 3491,
      "faroff": 3492,
      "uously": 3493,
      "pract": 3494,
      "decision": 3495,
      "approaching": 3496,
      "Visvam": 3497,
      "pulling": 3498,
      "swan": 3499,
      "त्रि": 3500,
      "ashes": 3501,
      "violate": 3502,
      "clearly": 3503,
      "colours": 3504,
      "split": 3505,
      "available": 3506,
      "advancing": 3507,
      "selfless": 3508,
      "feels": 3509,
      "eighth": 3510,
      "merits": 3511,
      "stretching": 3512,
      "neckl": 3513,
      "collect": 3514,
      "aimed": 3515,
      "purity": 3516,
      "revealed": 3517,
      "season": 3518,
      "seasons": 3519,
      "Mahak": 3520,
      "Mandak": 3521,
      "portra": 3522,
      "pleasuregardens": 3523,
      "singlehanded": 3524,
      "kidnapping": 3525,
      "axes": 3526,
      "cryst": 3527,
      "causes": 3528,
      "grove": 3529,
      "showered": 3530,
      "beginning": 3531,
      "tivities": 3532,
      "peaks": 3533,
      "residence": 3534,
      "residents": 3535,
      "suffer": 3536,
      "signi": 3537,
      "guarding": 3538,
      "continuously": 3539,
      "bulls": 3540,
      "hungry": 3541,
      "lowly": 3542,
      "marks": 3543,
      "mortals": 3544,
      "firmly": 3545,
      "employ": 3546,
      "obtained": 3547,
      "Overcome": 3548,
      "prof": 3549,
      "proud": 3550,
      "rangers": 3551,
      "satis": 3552,
      "anxious": 3553,
      "intellig": 3554,
      "flags": 3555,
      "Siva": 3556,
      "frost": 3557,
      "transformed": 3558,
      "walked": 3559,
      "intermedi": 3560,
      "leafthatched": 3561,
      "trembling": 3562,
      "ultimate": 3563,
      "ultimately": 3564,
      "spiritual": 3565,
      "screamed": 3566,
      "consecration": 3567,
      "discipline": 3568,
      "Under": 3569,
      "driven": 3570,
      "shouted": 3571,
      "feathered": 3572,
      "cluster": 3573,
      "children": 3574,
      "difficulty": 3575,
      "splintered": 3576,
      "Chitr": 3577,
      "Spirit": 3578,
      "beneficial": 3579,
      "hanging": 3580,
      "tusks": 3581,
      "unchaste": 3582,
      "months": 3583,
      "relatives": 3584,
      "symbolizes": 3585,
      "karnikara": 3586,
      "deceitful": 3587,
      "Fie": 3588,
      "Syen": 3589,
      "Supreme": 3590,
      "Windgod": 3591,
      "course": 3592,
      "central": 3593,
      "source": 3594,
      "ugly": 3595,
      "antelopes": 3596,
      "request": 3597,
      "enhan": 3598,
      "pearls": 3599,
      "teeming": 3600,
      "placed": 3601,
      "venomous": 3602,
      "concerned": 3603,
      "dislodged": 3604,
      "groups": 3605,
      "wellwisher": 3606,
      "appreh": 3607,
      "slowly": 3608,
      "illusory": 3609,
      "praiseworthy": 3610,
      "splendid": 3611,
      "cheerful": 3612,
      "anxiety": 3613,
      "Sthulaksha": 3614,
      "Kausalya": 3615,
      "Prasravana": 3616,
      "Queen": 3617,
      "Saying": 3618,
      "Surely": 3619,
      "aquatic": 3620,
      "eclip": 3621,
      "lofty": 3622,
      "lineage": 3623,
      "luminous": 3624,
      "powered": 3625,
      "rituals": 3626,
      "western": 3627,
      "wrath": 3628,
      "inaccessible": 3629,
      "infatuated": 3630,
      "tolerate": 3631,
      "definitely": 3632,
      "measurable": 3633,
      "unfortunate": 3634,
      "unshakeable": 3635,
      "reddened": 3636,
      "goblins": 3637,
      "rumbling": 3638,
      "conflict": 3639,
      "humility": 3640,
      "lotuseyed": 3641,
      "waterfalls": 3642,
      "emaciated": 3643,
      "undoubtedly": 3644,
      "Visvamitra": 3645,
      "Mahakap": 3646,
      ")?": 3647,
      ",'": 3648,
      "Ash": 3649,
      "Air": 3650,
      "Along": 3651,
      "Br": 3652,
      "Bhas": 3653,
      "Could": 3654,
      "Cupid": 3655,
      "Di": 3656,
      "Del": 3657,
      "Due": 3658,
      "Drenched": 3659,
      "Diti": 3660,
      "Fe": 3661,
      "Ganga": 3662,
      "Give": 3663,
      "Have": 3664,
      "Hold": 3665,
      "Kal": 3666,
      "Ket": 3667,
      "Listen": 3668,
      "Mis": 3669,
      "Many": 3670,
      "Not": 3671,
      "Other": 3672,
      "Par": 3673,
      "St": 3674,
      "San": 3675,
      "Save": 3676,
      "SIt": 3677,
      "Stru": 3678,
      "Take": 3679,
      "Trans": 3680,
      "Van": 3681,
      "Vin": 3682,
      "Vas": 3683,
      "Very": 3684,
      "Well": 3685,
      "Yet": 3686,
      "air": 3687,
      "ago": 3688,
      "ather": 3689,
      "aching": 3690,
      "awhile": 3691,
      "ben": 3692,
      "bam": 3693,
      "bus": 3694,
      "bha": 3695,
      "bbl": 3696,
      "bands": 3697,
      "bering": 3698,
      "brown": 3699,
      "bidden": 3700,
      "cor": 3701,
      "cow": 3702,
      "cking": 3703,
      "cack": 3704,
      "case": 3705,
      "cows": 3706,
      "curi": 3707,
      "dence": 3708,
      "ddy": 3709,
      "ee": 3710,
      "ere": 3711,
      "eas": 3712,
      "ech": 3713,
      "ease": 3714,
      "fes": 3715,
      "fly": 3716,
      "fag": 3717,
      "gre": 3718,
      "gir": 3719,
      "gated": 3720,
      "grown": 3721,
      "gacious": 3722,
      "hare": 3723,
      "hut": 3724,
      "hanas": 3725,
      "hidden": 3726,
      "ias": 3727,
      "ified": 3728,
      "jun": 3729,
      "jour": 3730,
      "kro": 3731,
      "kad": 3732,
      "kne": 3733,
      "lun": 3734,
      "late": 3735,
      "last": 3736,
      "mana": 3737,
      "mot": 3738,
      "mall": 3739,
      "mur": 3740,
      "mour": 3741,
      "mble": 3742,
      "nis": 3743,
      "nas": 3744,
      "nex": 3745,
      "num": 3746,
      "numb": 3747,
      "oo": 3748,
      "osity": 3749,
      "pour": 3750,
      "pul": 3751,
      "paka": 3752,
      "pron": 3753,
      "rther": 3754,
      "rout": 3755,
      "rava": 3756,
      "sof": 3757,
      "sci": 3758,
      "slight": 3759,
      "site": 3760,
      "small": 3761,
      "tama": 3762,
      "test": 3763,
      "tone": 3764,
      "try": 3765,
      "tched": 3766,
      "tars": 3767,
      "tment": 3768,
      "trying": 3769,
      "treated": 3770,
      "uk": 3771,
      "upro": 3772,
      "uchi": 3773,
      "uished": 3774,
      "vot": 3775,
      "vom": 3776,
      "vul": 3777,
      "ws": 3778,
      "wret": 3779,
      "wage": 3780,
      "walking": 3781,
      "yal": 3782,
      "year": 3783,
      "zz": 3784,
      "द्वा": 3785,
      "tha": 3786,
      "thri": 3787,
      "threw": 3788,
      "ane": 3789,
      "ani": 3790,
      "anth": 3791,
      "aneous": 3792,
      "inc": 3793,
      "inf": 3794,
      "inj": 3795,
      "inst": 3796,
      "inse": 3797,
      "inous": 3798,
      "inity": 3799,
      "incar": 3800,
      "incur": 3801,
      "incomparable": 3802,
      "inexhaust": 3803,
      "inanimate": 3804,
      "rese": 3805,
      "reven": 3806,
      "reft": 3807,
      "really": 3808,
      "eding": 3809,
      "aras": 3810,
      "arch": 3811,
      "arrest": 3812,
      "arash": 3813,
      "arising": 3814,
      "artment": 3815,
      "ises": 3816,
      "endu": 3817,
      "encru": 3818,
      "enomen": 3819,
      "enchant": 3820,
      "ats": 3821,
      "atter": 3822,
      "atitude": 3823,
      "espe": 3824,
      "escap": 3825,
      "ased": 3826,
      "asking": 3827,
      "asure": 3828,
      "asleep": 3829,
      "assig": 3830,
      "withered": 3831,
      "amb": 3832,
      "tom": 3833,
      "toise": 3834,
      "itating": 3835,
      "defi": 3836,
      "depri": 3837,
      "detail": 3838,
      "determin": 3839,
      "roar": 3840,
      "roamed": 3841,
      "rossed": 3842,
      "heed": 3843,
      "heat": 3844,
      "hell": 3845,
      "station": 3846,
      "stupid": 3847,
      "stroll": 3848,
      "lie": 3849,
      "lift": 3850,
      "lika": 3851,
      "lilies": 3852,
      "amali": 3853,
      "lets": 3854,
      "lebr": 3855,
      "aked": 3856,
      "akhi": 3857,
      "sees": 3858,
      "seized": 3859,
      "shaking": 3860,
      "avata": 3861,
      "almost": 3862,
      "altars": 3863,
      "beating": 3864,
      "betra": 3865,
      "beasts": 3866,
      "bewit": 3867,
      "becomes": 3868,
      "charm": 3869,
      "champ": 3870,
      "celebr": 3871,
      "ries": 3872,
      "rich": 3873,
      "riated": 3874,
      "hissing": 3875,
      "ads": 3876,
      "ading": 3877,
      "adhere": 3878,
      "adop": 3879,
      "advis": 3880,
      "sagacious": 3881,
      "till": 3882,
      "tipped": 3883,
      "tips": 3884,
      "lyas": 3885,
      "geese": 3886,
      "fury": 3887,
      "funer": 3888,
      "future": 3889,
      "further": 3890,
      "irres": 3891,
      "forth": 3892,
      "forbidden": 3893,
      "locks": 3894,
      "loss": 3895,
      "mete": 3896,
      "uses": 3897,
      "ented": 3898,
      "weight": 3899,
      "wels": 3900,
      "weather": 3901,
      "unted": 3902,
      "unity": 3903,
      "ungu": 3904,
      "uncha": 3905,
      "unleas": 3906,
      "untruth": 3907,
      "unequal": 3908,
      "unafraid": 3909,
      "unpleasant": 3910,
      "whole": 3911,
      "abund": 3912,
      "abounding": 3913,
      "fidence": 3914,
      "alls": 3915,
      "herself": 3916,
      "notes": 3917,
      "myra": 3918,
      "hide": 3919,
      "hipped": 3920,
      "aya": 3921,
      "acce": 3922,
      "acity": 3923,
      "activities": 3924,
      "appointed": 3925,
      "apartment": 3926,
      "essence": 3927,
      "odes": 3928,
      "ruel": 3929,
      "ruined": 3930,
      "rubbing": 3931,
      "ruddy": 3932,
      "velled": 3933,
      "ural": 3934,
      "tely": 3935,
      "tearing": 3936,
      "harming": 3937,
      "terrain": 3938,
      "resol": 3939,
      "icest": 3940,
      "icine": 3941,
      "author": 3942,
      "mili": 3943,
      "mild": 3944,
      "antly": 3945,
      "post": 3946,
      "pool": 3947,
      "pled": 3948,
      "procreated": 3949,
      "hasten": 3950,
      "dust": 3951,
      "duly": 3952,
      "mob": 3953,
      "sup": 3954,
      "warfare": 3955,
      "demonstr": 3956,
      "ilva": 3957,
      "digested": 3958,
      "agree": 3959,
      "canni": 3960,
      "condem": 3961,
      "conver": 3962,
      "contain": 3963,
      "confidence": 3964,
      "hail": 3965,
      "quer": 3966,
      "earing": 3967,
      "earned": 3968,
      "disting": 3969,
      "disgrace": 3970,
      "dismem": 3971,
      "disregar": 3972,
      "perhap": 3973,
      "blow": 3974,
      "exact": 3975,
      "except": 3976,
      "iment": 3977,
      "improper": 3978,
      "import": 3979,
      "immers": 3980,
      "impelled": 3981,
      "immeasurable": 3982,
      "imitating": 3983,
      "rendered": 3984,
      "sire": 3985,
      "size": 3986,
      "sighed": 3987,
      "noon": 3988,
      "grave": 3989,
      "gratitude": 3990,
      "cles": 3991,
      "soever": 3992,
      "umph": 3993,
      "hermits": 3994,
      "ula": 3995,
      "forms": 3996,
      "etc": 3997,
      "Whatever": 3998,
      "boo": 3999,
      "boas": 4000,
      "bold": 4001,
      "boars": 4002,
      "boast": 4003,
      "drain": 4004,
      "drawn": 4005,
      "orns": 4006,
      "desig": 4007,
      "despond": 4008,
      "space": 4009,
      "Its": 4010,
      "bodiment": 4011,
      "goldtipped": 4012,
      "firegod": 4013,
      "pedged": 4014,
      "wellversed": 4015,
      "destin": 4016,
      "arsis": 4017,
      "gait": 4018,
      "cowife": 4019,
      "speech": 4020,
      "laden": 4021,
      "offend": 4022,
      "prints": 4023,
      "phenomen": 4024,
      "caring": 4025,
      "scri": 4026,
      "इतयार्ष": 4027,
      "glowed": 4028,
      "glory": 4029,
      "fearlessly": 4030,
      "attached": 4031,
      "lighted": 4032,
      "destroyers": 4033,
      "trust": 4034,
      "ultuous": 4035,
      "emitting": 4036,
      "embell": 4037,
      "embodiment": 4038,
      "sharpedged": 4039,
      "retin": 4040,
      "Suki": 4041,
      "giant": 4042,
      "Whoever": 4043,
      "jointed": 4044,
      "slaught": 4045,
      "reply": 4046,
      "report": 4047,
      "Only": 4048,
      "Which": 4049,
      "ignor": 4050,
      "asthya": 4051,
      "Agni": 4052,
      "daughters": 4053,
      "picked": 4054,
      "heavily": 4055,
      "livered": 4056,
      "helps": 4057,
      "Surasa": 4058,
      "medicine": 4059,
      "thusias": 4060,
      "resting": 4061,
      "restri": 4062,
      "restless": 4063,
      "follower": 4064,
      "fatherinlaw": 4065,
      "events": 4066,
      "however": 4067,
      "sorrowful": 4068,
      "misdeeds": 4069,
      "miserable": 4070,
      "misfortune": 4071,
      "nerable": 4072,
      "Kalika": 4073,
      "gots": 4074,
      "observing": 4075,
      "charanas": 4076,
      "frightful": 4077,
      "deadly": 4078,
      "addic": 4079,
      "unda": 4080,
      "hitting": 4081,
      "thousandeyed": 4082,
      "humble": 4083,
      "brightly": 4084,
      "crop": 4085,
      "crops": 4086,
      "cloth": 4087,
      "famed": 4088,
      "fact": 4089,
      "something": 4090,
      "assured": 4091,
      "deeply": 4092,
      "staying": 4093,
      "tortoise": 4094,
      "thirteenth": 4095,
      "intending": 4096,
      "nightstalk": 4097,
      "nightrangers": 4098,
      "turning": 4099,
      "enjoying": 4100,
      "enjoyable": 4101,
      "pects": 4102,
      "pecting": 4103,
      "devotee": 4104,
      "victim": 4105,
      "invol": 4106,
      "invoked": 4107,
      "material": 4108,
      "prevent": 4109,
      "engrossed": 4110,
      "speaker": 4111,
      "switched": 4112,
      "akuta": 4113,
      "finding": 4114,
      "ject": 4115,
      "jewels": 4116,
      "sweat": 4117,
      "returning": 4118,
      "Brahman": 4119,
      "subjects": 4120,
      "Wherever": 4121,
      "graceful": 4122,
      "respectful": 4123,
      "friendly": 4124,
      "thoughts": 4125,
      "piercing": 4126,
      "pray": 4127,
      "vision": 4128,
      "everywhere": 4129,
      "flood": 4130,
      "pull": 4131,
      "targets": 4132,
      "त्रय": 4133,
      "streak": 4134,
      "remains": 4135,
      "colourful": 4136,
      "banner": 4137,
      "banished": 4138,
      "triumph": 4139,
      "bellied": 4140,
      "freely": 4141,
      "separate": 4142,
      "glittered": 4143,
      "chiefs": 4144,
      "jackals": 4145,
      "jackfruit": 4146,
      "dependent": 4147,
      "stretches": 4148,
      "condition": 4149,
      "quivering": 4150,
      "Devi": 4151,
      "aiming": 4152,
      "finest": 4153,
      "survival": 4154,
      "hurtled": 4155,
      "Enjoy": 4156,
      "Enraged": 4157,
      "trunks": 4158,
      "leads": 4159,
      "leading": 4160,
      "shoot": 4161,
      "chased": 4162,
      "footprints": 4163,
      "played": 4164,
      "Good": 4165,
      "lawful": 4166,
      "winds": 4167,
      "realis": 4168,
      "deluded": 4169,
      "chosen": 4170,
      "choicest": 4171,
      "committed": 4172,
      "suffering": 4173,
      "signific": 4174,
      "embracing": 4175,
      "guard": 4176,
      "accordance": 4177,
      "fulfilment": 4178,
      "Adorned": 4179,
      "Aditi": 4180,
      "Maybe": 4181,
      "carefully": 4182,
      "cremated": 4183,
      "hunting": 4184,
      "marked": 4185,
      "pping": 4186,
      "depart": 4187,
      "blossomed": 4188,
      "bathed": 4189,
      "reeds": 4190,
      "ruthless": 4191,
      "rutharash": 4192,
      "milarly": 4193,
      "possessed": 4194,
      "tormenting": 4195,
      "salutary": 4196,
      "Similarly": 4197,
      "circum": 4198,
      "dazz": 4199,
      "garments": 4200,
      "oceans": 4201,
      "transgress": 4202,
      "interven": 4203,
      "influ": 4204,
      "inflamed": 4205,
      "trembled": 4206,
      "providing": 4207,
      "perturbed": 4208,
      "perturb": 4209,
      "screaming": 4210,
      "slayer": 4211,
      "consecrate": 4212,
      "disciples": 4213,
      "growing": 4214,
      "assaulted": 4215,
      "shouting": 4216,
      "shortlived": 4217,
      "adored": 4218,
      "adopt": 4219,
      "feathers": 4220,
      "identally": 4221,
      "hills": 4222,
      "comfortably": 4223,
      "affectionately": 4224,
      "clusters": 4225,
      "illuminated": 4226,
      "quietly": 4227,
      "difficulties": 4228,
      "breathing": 4229,
      "bestowed": 4230,
      "bestower": 4231,
      "meaningful": 4232,
      "splinters": 4233,
      "bards": 4234,
      "drums": 4235,
      "ikhanas": 4236,
      "naga": 4237,
      "nagas": 4238,
      "inhabited": 4239,
      "instantaneous": 4240,
      "shape": 4241,
      "shaped": 4242,
      "belongs": 4243,
      "welcome": 4244,
      "rushing": 4245,
      "plucking": 4246,
      "questioned": 4247,
      "malicious": 4248,
      "mineral": 4249,
      "minerals": 4250,
      "represents": 4251,
      "smokeless": 4252,
      "recogn": 4253,
      "recogni": 4254,
      "Dhrutharash": 4255,
      "Megh": 4256,
      "Nandana": 4257,
      "covering": 4258,
      "krauncha": 4259,
      "lamenting": 4260,
      "punnaga": 4261,
      "situation": 4262,
      "twilight": 4263,
      "tongue": 4264,
      "tumultuous": 4265,
      "remember": 4266,
      "liberating": 4267,
      "chastity": 4268,
      "peacocks": 4269,
      "established": 4270,
      "supported": 4271,
      "extending": 4272,
      "expedition": 4273,
      "exhibited": 4274,
      "effect": 4275,
      "matchless": 4276,
      "merciless": 4277,
      "collapse": 4278,
      "planets": 4279,
      "repeatedly": 4280,
      "experiencing": 4281,
      "original": 4282,
      "Pushpaka": 4283,
      "Rudra": 4284,
      "cranes": 4285,
      "climb": 4286,
      "drowned": 4287,
      "sanctified": 4288,
      "infuriated": 4289,
      "information": 4290,
      "status": 4291,
      "adversity": 4292,
      "Throughout": 4293,
      "constantly": 4294,
      "permitted": 4295,
      "excessive": 4296,
      "blemish": 4297,
      "vigil": 4298,
      "yawning": 4299,
      "eventually": 4300,
      "thirsty": 4301,
      "preceptor": 4302,
      "variegated": 4303,
      "practise": 4304,
      "necklaces": 4305,
      "signia": 4306,
      "satisfied": 4307,
      "intelligent": 4308,
      "intermediate": 4309,
      "Chitrakuta": 4310,
      "enhancer": 4311,
      "apprehen": 4312,
      "eclipsed": 4313,
      "Mahakapala": 4314,
      "Airavata": 4315,
      "Brave": 4316,
      "Deluded": 4317,
      "Holding": 4318,
      "Missing": 4319,
      "Otherwise": 4320,
      "SIta": 4321,
      "Struck": 4322,
      "Vinata": 4323,
      "benef": 4324,
      "bamboo": 4325,
      "busy": 4326,
      "cackling": 4327,
      "curiosity": 4328,
      "easily": 4329,
      "faggots": 4330,
      "harem": 4331,
      "journey": 4332,
      "kadamba": 4333,
      "knees": 4334,
      "next": 4335,
      "slightly": 4336,
      "vomitting": 4337,
      "wretched": 4338,
      "incarn": 4339,
      "inexhaustible": 4340,
      "resemble": 4341,
      "revenge": 4342,
      "archers": 4343,
      "encrusted": 4344,
      "especially": 4345,
      "escape": 4346,
      "defiled": 4347,
      "deprived": 4348,
      "stationed": 4349,
      "akhilyas": 4350,
      "bewitching": 4351,
      "charming": 4352,
      "adopting": 4353,
      "funeral": 4354,
      "unleash": 4355,
      "abundant": 4356,
      "hastening": 4357,
      "dismembered": 4358,
      "perhaps": 4359,
      "important": 4360,
      "immersed": 4361,
      "despondent": 4362,
      "significant": 4363,
      "dazzling": 4364,
      "ikhanasas": 4365,
      "instantaneously": 4366,
      "Dhrutharashtri": 4367,
      ".)": 4368,
      "?.": 4369,
      "Bhad": 4370,
      "Being": 4371,
      "Bali": 4372,
      "Bending": 4373,
      "Bilva": 4374,
      "Ch": 4375,
      "Can": 4376,
      "Con": 4377,
      "Com": 4378,
      "Creat": 4379,
      "Cha": 4380,
      "Cruel": 4381,
      "Dis": 4382,
      "Dur": 4383,
      "Dread": 4384,
      "Dig": 4385,
      "During": 4386,
      "Dharm": 4387,
      "Ex": 4388,
      "Ear": 4389,
      "Fu": 4390,
      "Fir": 4391,
      "Gi": 4392,
      "Gl": 4393,
      "Gr": 4394,
      "Get": 4395,
      "Gandhar": 4396,
      "Gold": 4397,
      "Hari": 4398,
      "Hands": 4399,
      "Im": 4400,
      "Ir": 4401,
      "Is": 4402,
      "Jack": 4403,
      "Ko": 4404,
      "Kr": 4405,
      "Kro": 4406,
      "Kak": 4407,
      "Kau": 4408,
      "Lot": 4409,
      "Long": 4410,
      "Lax": 4411,
      "Mar": 4412,
      "Mal": 4413,
      "Moun": 4414,
      "Making": 4415,
      "Manu": 4416,
      "Nar": 4417,
      "Nat": 4418,
      "Nor": 4419,
      "Nam": 4420,
      "Nata": 4421,
      "Neither": 4422,
      "Ob": 4423,
      "Pu": 4424,
      "Pri": 4425,
      "Pers": 4426,
      "Prin": 4427,
      "Pruth": 4428,
      "Res": 4429,
      "Ref": 4430,
      "Rig": 4431,
      "Rik": 4432,
      "Sl": 4433,
      "Son": 4434,
      "Sep": 4435,
      "Set": 4436,
      "Some": 4437,
      "Sud": 4438,
      "Stri": 4439,
      "Spur": 4440,
      "Ti": 4441,
      "Tor": 4442,
      "Tam": 4443,
      "Vind": 4444,
      "Vish": 4445,
      "Vayu": 4446,
      "Vasu": 4447,
      "Wa": 4448,
      "Wat": 4449,
      "Whe": 4450,
      "Wise": 4451,
      "Will": 4452,
      "Women": 4453,
      "Wearing": 4454,
      "Yay": 4455,
      "bare": 4456,
      "bhi": 4457,
      "bits": 4458,
      "bhad": 4459,
      "bree": 4460,
      "brace": 4461,
      "biting": 4462,
      "bones": 4463,
      "bened": 4464,
      "bending": 4465,
      "balls": 4466,
      "cin": 4467,
      "cav": 4468,
      "cent": 4469,
      "cod": 4470,
      "cup": 4471,
      "corn": 4472,
      "cret": 4473,
      "couth": 4474,
      "cities": 4475,
      "casu": 4476,
      "cresc": 4477,
      "caco": 4478,
      "dh": 4479,
      "dre": 4480,
      "dit": 4481,
      "dama": 4482,
      "dap": 4483,
      "dic": 4484,
      "drun": 4485,
      "drown": 4486,
      "dash": 4487,
      "dhav": 4488,
      "dresses": 4489,
      "eving": 4490,
      "easy": 4491,
      "etern": 4492,
      "ewed": 4493,
      "fy": 4494,
      "fed": 4495,
      "fought": 4496,
      "fying": 4497,
      "frown": 4498,
      "fists": 4499,
      "ger": 4500,
      "gen": 4501,
      "gas": 4502,
      "gam": 4503,
      "ghe": 4504,
      "gic": 4505,
      "gance": 4506,
      "gul": 4507,
      "gious": 4508,
      "ggl": 4509,
      "grain": 4510,
      "ham": 4511,
      "hir": 4512,
      "house": 4513,
      "honey": 4514,
      "hamali": 4515,
      "horns": 4516,
      "ich": 4517,
      "iac": 4518,
      "iour": 4519,
      "izing": 4520,
      "jas": 4521,
      "joking": 4522,
      "juna": 4523,
      "jaya": 4524,
      "jarsis": 4525,
      "ker": 4526,
      "kes": 4527,
      "knot": 4528,
      "kled": 4529,
      "kunda": 4530,
      "lge": 4531,
      "lest": 4532,
      "lone": 4533,
      "lorn": 4534,
      "laments": 4535,
      "liness": 4536,
      "lines": 4537,
      "mes": 4538,
      "mpe": 4539,
      "marrow": 4540,
      "mate": 4541,
      "mmed": 4542,
      "nt": 4543,
      "nim": 4544,
      "ods": 4545,
      "oic": 4546,
      "oves": 4547,
      "othing": 4548,
      "pat": 4549,
      "pli": 4550,
      "pot": 4551,
      "pay": 4552,
      "pared": 4553,
      "prep": 4554,
      "padd": 4555,
      "paci": 4556,
      "pounced": 4557,
      "rs": 4558,
      "rit": 4559,
      "ral": 4560,
      "rated": 4561,
      "rise": 4562,
      "ration": 4563,
      "rata": 4564,
      "raratha": 4565,
      "rling": 4566,
      "ritual": 4567,
      "rouse": 4568,
      "sas": 4569,
      "sess": 4570,
      "song": 4571,
      "skill": 4572,
      "sang": 4573,
      "sands": 4574,
      "skilled": 4575,
      "sast": 4576,
      "smit": 4577,
      "snat": 4578,
      "saken": 4579,
      "sami": 4580,
      "saved": 4581,
      "tro": 4582,
      "tal": 4583,
      "tted": 4584,
      "tame": 4585,
      "taka": 4586,
      "tried": 4587,
      "tled": 4588,
      "trace": 4589,
      "taw": 4590,
      "tindu": 4591,
      "uce": 4592,
      "ura": 4593,
      "uish": 4594,
      "uced": 4595,
      "ubs": 4596,
      "ubha": 4597,
      "vest": 4598,
      "vol": 4599,
      "vows": 4600,
      "wre": 4601,
      "wound": 4602,
      "wag": 4603,
      "wounds": 4604,
      "yav": 4605,
      "त्वारिंशस्सर्गः": 4606,
      "दश": 4607,
      "िय": 4608,
      "िमस्सर्गः": 4609,
      "ेय": 4610,
      "thun": 4611,
      "throw": 4612,
      "threat": 4613,
      "aning": 4614,
      "anced": 4615,
      "anwhile": 4616,
      "inno": 4617,
      "ints": 4618,
      "incess": 4619,
      "initi": 4620,
      "ineffe": 4621,
      "insignia": 4622,
      "rec": 4623,
      "redem": 4624,
      "reap": 4625,
      "recl": 4626,
      "reel": 4627,
      "repos": 4628,
      "remon": 4629,
      "refle": 4630,
      "reject": 4631,
      "oubled": 4632,
      "erly": 4633,
      "eric": 4634,
      "ony": 4635,
      "onds": 4636,
      "ards": 4637,
      "arly": 4638,
      "arated": 4639,
      "arni": 4640,
      "archer": 4641,
      "anded": 4642,
      "iser": 4643,
      "isti": 4644,
      "issu": 4645,
      "isted": 4646,
      "isting": 4647,
      "istic": 4648,
      "isked": 4649,
      "ingly": 4650,
      "encir": 4651,
      "enthusias": 4652,
      "ator": 4653,
      "attire": 4654,
      "esha": 4655,
      "orts": 4656,
      "ortened": 4657,
      "asana": 4658,
      "asso": 4659,
      "asses": 4660,
      "aspects": 4661,
      "wipe": 4662,
      "widesp": 4663,
      "ample": 4664,
      "ambu": 4665,
      "amber": 4666,
      "tored": 4667,
      "toxicated": 4668,
      "lls": 4669,
      "lly": 4670,
      "llain": 4671,
      "itted": 4672,
      "itraratha": 4673,
      "decl": 4674,
      "deity": 4675,
      "deem": 4676,
      "depic": 4677,
      "delivered": 4678,
      "rolled": 4679,
      "heap": 4680,
      "heres": 4681,
      "heating": 4682,
      "hevelled": 4683,
      "stout": 4684,
      "stated": 4685,
      "stum": 4686,
      "stands": 4687,
      "stage": 4688,
      "stell": 4689,
      "stances": 4690,
      "liz": 4691,
      "liar": 4692,
      "lized": 4693,
      "liked": 4694,
      "lear": 4695,
      "akarm": 4696,
      "akrav": 4697,
      "seed": 4698,
      "severed": 4699,
      "secret": 4700,
      "shes": 4701,
      "shad": 4702,
      "shame": 4703,
      "showers": 4704,
      "shared": 4705,
      "shrad": 4706,
      "shreds": 4707,
      "shade": 4708,
      "shalya": 4709,
      "shatter": 4710,
      "shortened": 4711,
      "avira": 4712,
      "avery": 4713,
      "aviour": 4714,
      "ales": 4715,
      "alities": 4716,
      "bees": 4717,
      "beho": 4718,
      "beget": 4719,
      "bearing": 4720,
      "begot": 4721,
      "befallen": 4722,
      "beheld": 4723,
      "beams": 4724,
      "bereft": 4725,
      "chand": 4726,
      "cham": 4727,
      "chir": 4728,
      "chain": 4729,
      "chol": 4730,
      "choice": 4731,
      "choked": 4732,
      "change": 4733,
      "chakrav": 4734,
      "whisked": 4735,
      "ghast": 4736,
      "cease": 4737,
      "ceased": 4738,
      "ceremon": 4739,
      "rice": 4740,
      "adheres": 4741,
      "ominous": 4742,
      "sapp": 4743,
      "tip": 4744,
      "tile": 4745,
      "tive": 4746,
      "gem": 4747,
      "fuly": 4748,
      "fuel": 4749,
      "furious": 4750,
      "iring": 4751,
      "irable": 4752,
      "irrepres": 4753,
      "forces": 4754,
      "forlorn": 4755,
      "forsaken": 4756,
      "lose": 4757,
      "lope": 4758,
      "loaded": 4759,
      "feat": 4760,
      "feared": 4761,
      "meet": 4762,
      "ushered": 4763,
      "entran": 4764,
      "entlessly": 4765,
      "entreated": 4766,
      "rare": 4767,
      "raise": 4768,
      "raising": 4769,
      "rays": 4770,
      "rabhi": 4771,
      "area": 4772,
      "demands": 4773,
      "foolish": 4774,
      "unci": 4775,
      "unning": 4776,
      "unworthy": 4777,
      "unhurt": 4778,
      "unbear": 4779,
      "unstable": 4780,
      "undisturbed": 4781,
      "uncouth": 4782,
      "whoever": 4783,
      "ablu": 4784,
      "abusing": 4785,
      "abrata": 4786,
      "fires": 4787,
      "field": 4788,
      "fields": 4789,
      "filaments": 4790,
      "allen": 4791,
      "reddis": 4792,
      "redoubled": 4793,
      "vert": 4794,
      "vermi": 4795,
      "verned": 4796,
      "veritable": 4797,
      "verized": 4798,
      "goads": 4799,
      "governed": 4800,
      "worry": 4801,
      "worried": 4802,
      "Lakshmi": 4803,
      "Lakshmna": 4804,
      "compan": 4805,
      "companied": 4806,
      "compet": 4807,
      "compared": 4808,
      "ayed": 4809,
      "acking": 4810,
      "acqu": 4811,
      "acting": 4812,
      "acqui": 4813,
      "ounce": 4814,
      "ounchi": 4815,
      "forever": 4816,
      "forenoon": 4817,
      "rude": 4818,
      "ructi": 4819,
      "pered": 4820,
      "urged": 4821,
      "estructi": 4822,
      "resounded": 4823,
      "resorted": 4824,
      "respond": 4825,
      "restore": 4826,
      "restored": 4827,
      "ici": 4828,
      "aug": 4829,
      "audi": 4830,
      "autiful": 4831,
      "autum": 4832,
      "mixed": 4833,
      "ctu": 4834,
      "Think": 4835,
      "greatly": 4836,
      "hook": 4837,
      "hooves": 4838,
      "pol": 4839,
      "poles": 4840,
      "treasure": 4841,
      "types": 4842,
      "plot": 4843,
      "plain": 4844,
      "plated": 4845,
      "plants": 4846,
      "prove": 4847,
      "proble": 4848,
      "proved": 4849,
      "doom": 4850,
      "dug": 4851,
      "duties": 4852,
      "venison": 4853,
      "uts": 4854,
      "utter": 4855,
      "utation": 4856,
      "moth": 4857,
      "moves": 4858,
      "sug": 4859,
      "sum": 4860,
      "sual": 4861,
      "eply": 4862,
      "warchariot": 4863,
      "warning": 4864,
      "warfront": 4865,
      "demonking": 4866,
      "demoniac": 4867,
      "iles": 4868,
      "ilasa": 4869,
      "seem": 4870,
      "seemed": 4871,
      "dip": 4872,
      "dian": 4873,
      "diet": 4874,
      "diverse": 4875,
      "rightly": 4876,
      "rightful": 4877,
      "agg": 4878,
      "ages": 4879,
      "agility": 4880,
      "agami": 4881,
      "indestructi": 4882,
      "angi": 4883,
      "contem": 4884,
      "conceived": 4885,
      "conjun": 4886,
      "constell": 4887,
      "haunted": 4888,
      "quite": 4889,
      "qualities": 4890,
      "brotherly": 4891,
      "earn": 4892,
      "earns": 4893,
      "disru": 4894,
      "discri": 4895,
      "disappro": 4896,
      "discer": 4897,
      "disappeared": 4898,
      "disguise": 4899,
      "disclose": 4900,
      "displeasure": 4901,
      "dissol": 4902,
      "discus": 4903,
      "disrespected": 4904,
      "dishevelled": 4905,
      "perman": 4906,
      "perceived": 4907,
      "ishment": 4908,
      "fled": 4909,
      "flaw": 4910,
      "Inf": 4911,
      "Intoxicated": 4912,
      "blame": 4913,
      "blaming": 4914,
      "blows": 4915,
      "blinking": 4916,
      "extra": 4917,
      "expert": 4918,
      "exclaim": 4919,
      "extermin": 4920,
      "example": 4921,
      "impen": 4922,
      "impossible": 4923,
      "imperturb": 4924,
      "render": 4925,
      "renewed": 4926,
      "sip": 4927,
      "sighs": 4928,
      "sighing": 4929,
      "blew": 4930,
      "uphold": 4931,
      "noise": 4932,
      "ckled": 4933,
      "bowed": 4934,
      "gras": 4935,
      "cled": 4936,
      "clash": 4937,
      "clubs": 4938,
      "soil": 4939,
      "soaked": 4940,
      "soothing": 4941,
      "umble": 4942,
      "umbre": 4943,
      "umny": 4944,
      "ityas": 4945,
      "maj": 4946,
      "maid": 4947,
      "ulated": 4948,
      "armlets": 4949,
      "etrable": 4950,
      "boy": 4951,
      "bore": 4952,
      "lfth": 4953,
      "drawing": 4954,
      "draws": 4955,
      "descri": 4956,
      "desirable": 4957,
      "rinkled": 4958,
      "mounted": 4959,
      "mounting": 4960,
      "overpowered": 4961,
      "intoler": 4962,
      "spy": 4963,
      "spare": 4964,
      "sport": 4965,
      "spacious": 4966,
      "sprinkled": 4967,
      "efficient": 4968,
      "hearts": 4969,
      "boding": 4970,
      "ideal": 4971,
      "nether": 4972,
      "Sungod": 4973,
      "firewood": 4974,
      "wells": 4975,
      "wellformed": 4976,
      "wellequipped": 4977,
      "welljointed": 4978,
      "wellshaped": 4979,
      "mention": 4980,
      "cient": 4981,
      "ciated": 4982,
      "selfborn": 4983,
      "selfrespect": 4984,
      "selfcontrol": 4985,
      "selfrealised": 4986,
      "arsana": 4987,
      "gazed": 4988,
      "gripped": 4989,
      "vaikhanasas": 4990,
      "coo": 4991,
      "coiled": 4992,
      "coach": 4993,
      "mination": 4994,
      "specially": 4995,
      "speckled": 4996,
      "ladles": 4997,
      "offsp": 4998,
      "offence": 4999
    },
    "merges": [
      [
        "t",
        "h"
      ],
      [
        "a",
        "n"
      ],
      [
        "i",
        "n"
      ],
      [
        "th",
        "e"
      ],
      [
        "r",
        "e"
      ],
      [
        "o",
        "u"
      ],
      [
        "e",
        "d"
      ],
      [
        "e",
        "r"
      ],
      [
        "o",
        "n"
      ],
      [
        "a",
        "r"
      ],
      [
        "o",
        "f"
      ],
      [
        "an",
        "d"
      ],
      [
        "i",
        "s"
      ],
      [
        "in",
        "g"
      ],
      [
        "e",
        "n"
      ],
      [
        "a",
        "t"
      ],
      [
        "e",
        "s"
      ],
      [
        "o",
        "r"
      ],
      [
        "a",
        "s"
      ],
      [
        "w",
        "i"
      ],
      [
        "a",
        "m"
      ],
      [
        "t",
        "o"
      ],
      [
        "l",
        "l"
      ],
      [
        "i",
        "t"
      ],
      [
        "d",
        "e"
      ],
      [
        "r",
        "o"
      ],
      [
        "h",
        "e"
      ],
      [
        "s",
        "t"
      ],
      [
        "l",
        "i"
      ],
      [
        "wi",
        "th"
      ],
      [
        "y",
        "ou"
      ],
      [
        "am",
        "a"
      ],
      [
        "l",
        "e"
      ],
      [
        "R",
        "ama"
      ],
      [
        "a",
        "k"
      ],
      [
        "s",
        "e"
      ],
      [
        "s",
        "h"
      ],
      [
        "o",
        "w"
      ],
      [
        "a",
        "v"
      ],
      [
        "an",
        "a"
      ],
      [
        "a",
        "l"
      ],
      [
        "b",
        "e"
      ],
      [
        "c",
        "h"
      ],
      [
        "w",
        "h"
      ],
      [
        "g",
        "h"
      ],
      [
        "o",
        "t"
      ],
      [
        "c",
        "e"
      ],
      [
        "r",
        "i"
      ],
      [
        "h",
        "is"
      ],
      [
        "a",
        "d"
      ],
      [
        "o",
        "m"
      ],
      [
        "b",
        "y"
      ],
      [
        "k",
        "e"
      ],
      [
        "d",
        "s"
      ],
      [
        "s",
        "a"
      ],
      [
        "t",
        "i"
      ],
      [
        "l",
        "y"
      ],
      [
        "gh",
        "t"
      ],
      [
        "g",
        "e"
      ],
      [
        "f",
        "u"
      ],
      [
        "i",
        "r"
      ],
      [
        "l",
        "d"
      ],
      [
        "it",
        "a"
      ],
      [
        "f",
        "or"
      ],
      [
        "li",
        "ke"
      ],
      [
        "l",
        "o"
      ],
      [
        "f",
        "e"
      ],
      [
        "m",
        "e"
      ],
      [
        "on",
        "s"
      ],
      [
        "u",
        "s"
      ],
      [
        "en",
        "t"
      ],
      [
        "w",
        "e"
      ],
      [
        "r",
        "a"
      ],
      [
        "a",
        "re"
      ],
      [
        "de",
        "m"
      ],
      [
        "f",
        "o"
      ],
      [
        "u",
        "n"
      ],
      [
        "wh",
        "o"
      ],
      [
        "a",
        "b"
      ],
      [
        "f",
        "i"
      ],
      [
        "i",
        "d"
      ],
      [
        "a",
        "ll"
      ],
      [
        "h",
        "er"
      ],
      [
        "S",
        "ita"
      ],
      [
        "n",
        "ot"
      ],
      [
        "m",
        "y"
      ],
      [
        "fu",
        "l"
      ],
      [
        "re",
        "d"
      ],
      [
        "ak",
        "sh"
      ],
      [
        "h",
        "i"
      ],
      [
        "v",
        "er"
      ],
      [
        "g",
        "o"
      ],
      [
        "w",
        "or"
      ],
      [
        "the",
        "r"
      ],
      [
        "T",
        "he"
      ],
      [
        "ou",
        "s"
      ],
      [
        "L",
        "aksh"
      ],
      [
        "Laksh",
        "m"
      ],
      [
        "c",
        "om"
      ],
      [
        "a",
        "y"
      ],
      [
        "wi",
        "ll"
      ],
      [
        "Lakshm",
        "ana"
      ],
      [
        "w",
        "as"
      ],
      [
        "a",
        "c"
      ],
      [
        "a",
        "p"
      ],
      [
        "es",
        "s"
      ],
      [
        "ou",
        "n"
      ],
      [
        "fo",
        "re"
      ],
      [
        "av",
        "e"
      ],
      [
        "you",
        "r"
      ],
      [
        "o",
        "d"
      ],
      [
        "k",
        "ing"
      ],
      [
        "r",
        "u"
      ],
      [
        "p",
        "e"
      ],
      [
        "v",
        "e"
      ],
      [
        "ro",
        "w"
      ],
      [
        "on",
        "g"
      ],
      [
        "u",
        "r"
      ],
      [
        "re",
        "at"
      ],
      [
        "t",
        "e"
      ],
      [
        "h",
        "ar"
      ],
      [
        "ou",
        "t"
      ],
      [
        "t",
        "er"
      ],
      [
        "th",
        "is"
      ],
      [
        "a",
        "in"
      ],
      [
        "th",
        "at"
      ],
      [
        "av",
        "ana"
      ],
      [
        "es",
        "t"
      ],
      [
        "R",
        "avana"
      ],
      [
        "re",
        "s"
      ],
      [
        "fore",
        "st"
      ],
      [
        "i",
        "c"
      ],
      [
        "dem",
        "ons"
      ],
      [
        "a",
        "u"
      ],
      [
        "k",
        "i"
      ],
      [
        "ro",
        "m"
      ],
      [
        "m",
        "i"
      ],
      [
        "on",
        "e"
      ],
      [
        "ar",
        "i"
      ],
      [
        "h",
        "ave"
      ],
      [
        "c",
        "t"
      ],
      [
        "T",
        "h"
      ],
      [
        "er",
        "s"
      ],
      [
        "hi",
        "m"
      ],
      [
        "f",
        "rom"
      ],
      [
        "an",
        "t"
      ],
      [
        "g",
        "reat"
      ],
      [
        "h",
        "o"
      ],
      [
        "i",
        "on"
      ],
      [
        "n",
        "ow"
      ],
      [
        "्",
        "य"
      ],
      [
        "p",
        "o"
      ],
      [
        "t",
        "re"
      ],
      [
        "ar",
        "row"
      ],
      [
        "H",
        "e"
      ],
      [
        "b",
        "ro"
      ],
      [
        "o",
        "k"
      ],
      [
        "t",
        "y"
      ],
      [
        "an",
        "y"
      ],
      [
        "p",
        "l"
      ],
      [
        "p",
        "ro"
      ],
      [
        "h",
        "as"
      ],
      [
        "Y",
        "ou"
      ],
      [
        "sa",
        "id"
      ],
      [
        "d",
        "o"
      ],
      [
        "he",
        "re"
      ],
      [
        "d",
        "u"
      ],
      [
        "v",
        "en"
      ],
      [
        "u",
        "t"
      ],
      [
        "a",
        "th"
      ],
      [
        "m",
        "o"
      ],
      [
        "s",
        "u"
      ],
      [
        "e",
        "p"
      ],
      [
        "w",
        "ar"
      ],
      [
        "dem",
        "on"
      ],
      [
        "oun",
        "d"
      ],
      [
        "i",
        "l"
      ],
      [
        "ki",
        "ll"
      ],
      [
        "se",
        "e"
      ],
      [
        "d",
        "er"
      ],
      [
        "d",
        "i"
      ],
      [
        "s",
        "ed"
      ],
      [
        "ri",
        "ght"
      ],
      [
        "wor",
        "ds"
      ],
      [
        "a",
        "g"
      ],
      [
        "in",
        "d"
      ],
      [
        "ou",
        "r"
      ],
      [
        "an",
        "g"
      ],
      [
        "्",
        "र"
      ],
      [
        "ou",
        "ld"
      ],
      [
        "arrow",
        "s"
      ],
      [
        "c",
        "an"
      ],
      [
        "c",
        "on"
      ],
      [
        "ti",
        "on"
      ],
      [
        "h",
        "a"
      ],
      [
        "sa",
        "ge"
      ],
      [
        "q",
        "u"
      ],
      [
        "at",
        "e"
      ],
      [
        "wh",
        "i"
      ],
      [
        "p",
        "le"
      ],
      [
        "bro",
        "ther"
      ],
      [
        "e",
        "ar"
      ],
      [
        "d",
        "is"
      ],
      [
        "र",
        "्"
      ],
      [
        "क",
        "ा"
      ],
      [
        "ab",
        "le"
      ],
      [
        "a",
        "ce"
      ],
      [
        "w",
        "ay"
      ],
      [
        "ow",
        "n"
      ],
      [
        "p",
        "er"
      ],
      [
        "t",
        "ed"
      ],
      [
        "t",
        "en"
      ],
      [
        "is",
        "h"
      ],
      [
        "f",
        "l"
      ],
      [
        "o",
        "l"
      ],
      [
        "I",
        "n"
      ],
      [
        "b",
        "l"
      ],
      [
        "e",
        "x"
      ],
      [
        "t",
        "ain"
      ],
      [
        "an",
        "ce"
      ],
      [
        "i",
        "m"
      ],
      [
        "the",
        "ir"
      ],
      [
        "re",
        "n"
      ],
      [
        "s",
        "i"
      ],
      [
        "b",
        "le"
      ],
      [
        "at",
        "ed"
      ],
      [
        "u",
        "p"
      ],
      [
        "n",
        "o"
      ],
      [
        "u",
        "st"
      ],
      [
        "tre",
        "es"
      ],
      [
        "k",
        "now"
      ],
      [
        "c",
        "k"
      ],
      [
        "or",
        "d"
      ],
      [
        "b",
        "ow"
      ],
      [
        "be",
        "au"
      ],
      [
        "a",
        "f"
      ],
      [
        "g",
        "r"
      ],
      [
        "am",
        "e"
      ],
      [
        "K",
        "har"
      ],
      [
        "c",
        "l"
      ],
      [
        "s",
        "o"
      ],
      [
        "Khar",
        "a"
      ],
      [
        "u",
        "m"
      ],
      [
        "it",
        "y"
      ],
      [
        "we",
        "re"
      ],
      [
        "m",
        "a"
      ],
      [
        "v",
        "ed"
      ],
      [
        "her",
        "m"
      ],
      [
        "Th",
        "us"
      ],
      [
        "u",
        "l"
      ],
      [
        "ar",
        "m"
      ],
      [
        "for",
        "m"
      ],
      [
        "i",
        "ous"
      ],
      [
        "ch",
        "ari"
      ],
      [
        "herm",
        "ita"
      ],
      [
        "chari",
        "ot"
      ],
      [
        "e",
        "t"
      ],
      [
        "de",
        "er"
      ],
      [
        "W",
        "h"
      ],
      [
        "it",
        "s"
      ],
      [
        "b",
        "o"
      ],
      [
        "l",
        "f"
      ],
      [
        "d",
        "ra"
      ],
      [
        "the",
        "re"
      ],
      [
        "e",
        "y"
      ],
      [
        "s",
        "he"
      ],
      [
        "en",
        "d"
      ],
      [
        "or",
        "n"
      ],
      [
        "ak",
        "e"
      ],
      [
        "d",
        "es"
      ],
      [
        "i",
        "th"
      ],
      [
        "r",
        "y"
      ],
      [
        "r",
        "in"
      ],
      [
        "and",
        "s"
      ],
      [
        "e",
        "ven"
      ],
      [
        "ak",
        "a"
      ],
      [
        "whi",
        "ch"
      ],
      [
        "sa",
        "w"
      ],
      [
        "ti",
        "ful"
      ],
      [
        "lo",
        "ok"
      ],
      [
        "m",
        "oun"
      ],
      [
        "u",
        "re"
      ],
      [
        "b",
        "ir"
      ],
      [
        "f",
        "ir"
      ],
      [
        "o",
        "ver"
      ],
      [
        "in",
        "to"
      ],
      [
        "the",
        "m"
      ],
      [
        "re",
        "ad"
      ],
      [
        "ow",
        "er"
      ],
      [
        "e",
        "ous"
      ],
      [
        "s",
        "p"
      ],
      [
        "beau",
        "tiful"
      ],
      [
        "hermita",
        "ge"
      ],
      [
        "e",
        "f"
      ],
      [
        "he",
        "ar"
      ],
      [
        "fu",
        "ll"
      ],
      [
        "I",
        "t"
      ],
      [
        "d",
        "own"
      ],
      [
        "i",
        "f"
      ],
      [
        "o",
        "ther"
      ],
      [
        "b",
        "od"
      ],
      [
        "i",
        "de"
      ],
      [
        "n",
        "e"
      ],
      [
        "mi",
        "ght"
      ],
      [
        "S",
        "un"
      ],
      [
        "h",
        "ad"
      ],
      [
        "li",
        "fe"
      ],
      [
        "be",
        "ing"
      ],
      [
        "go",
        "ld"
      ],
      [
        "fi",
        "re"
      ],
      [
        "go",
        "ds"
      ],
      [
        "com",
        "e"
      ],
      [
        "g",
        "es"
      ],
      [
        "p",
        "ed"
      ],
      [
        "ch",
        "ed"
      ],
      [
        "we",
        "ll"
      ],
      [
        "m",
        "en"
      ],
      [
        "c",
        "i"
      ],
      [
        "ou",
        "gh"
      ],
      [
        "am",
        "ong"
      ],
      [
        "se",
        "lf"
      ],
      [
        "ab",
        "out"
      ],
      [
        "kill",
        "ed"
      ],
      [
        "fir",
        "st"
      ],
      [
        "d",
        "est"
      ],
      [
        "t",
        "ing"
      ],
      [
        "y",
        "ana"
      ],
      [
        "ar",
        "s"
      ],
      [
        "In",
        "dra"
      ],
      [
        "g",
        "a"
      ],
      [
        "t",
        "s"
      ],
      [
        "Rama",
        "yana"
      ],
      [
        "wor",
        "ld"
      ],
      [
        "g",
        "ri"
      ],
      [
        "v",
        "a"
      ],
      [
        "व",
        "ा"
      ],
      [
        "c",
        "o"
      ],
      [
        "c",
        "tion"
      ],
      [
        "m",
        "in"
      ],
      [
        "s",
        "pe"
      ],
      [
        "w",
        "at"
      ],
      [
        "the",
        "se"
      ],
      [
        "av",
        "ing"
      ],
      [
        ")",
        "."
      ],
      [
        "b",
        "lo"
      ],
      [
        "b",
        "est"
      ],
      [
        "l",
        "ad"
      ],
      [
        "o",
        "se"
      ],
      [
        "of",
        "f"
      ],
      [
        "en",
        "ds"
      ],
      [
        "ct",
        "ed"
      ],
      [
        "a",
        "way"
      ],
      [
        "n",
        "ess"
      ],
      [
        "s",
        "ar"
      ],
      [
        "t",
        "w"
      ],
      [
        "ac",
        "k"
      ],
      [
        "ap",
        "p"
      ],
      [
        "ur",
        "n"
      ],
      [
        "ho",
        "ly"
      ],
      [
        "moun",
        "tain"
      ],
      [
        "might",
        "y"
      ],
      [
        "A",
        "r"
      ],
      [
        "l",
        "ong"
      ],
      [
        "com",
        "po"
      ],
      [
        "J",
        "an"
      ],
      [
        "v",
        "ing"
      ],
      [
        "ep",
        "ic"
      ],
      [
        "compo",
        "sed"
      ],
      [
        "e",
        "l"
      ],
      [
        "wi",
        "fe"
      ],
      [
        "un",
        "der"
      ],
      [
        "right",
        "eous"
      ],
      [
        "sh",
        "ould"
      ],
      [
        "om",
        "e"
      ],
      [
        "n",
        "i"
      ],
      [
        "s",
        "k"
      ],
      [
        "and",
        "a"
      ],
      [
        "de",
        "ath"
      ],
      [
        "af",
        "ter"
      ],
      [
        "h",
        "u"
      ],
      [
        "l",
        "ord"
      ],
      [
        "p",
        "rin"
      ],
      [
        "v",
        "i"
      ],
      [
        "स",
        "्"
      ],
      [
        "V",
        "al"
      ],
      [
        "p",
        "h"
      ],
      [
        "an",
        "k"
      ],
      [
        "ll",
        "ed"
      ],
      [
        "ver",
        "y"
      ],
      [
        "c",
        "ar"
      ],
      [
        "f",
        "a"
      ],
      [
        "p",
        "ower"
      ],
      [
        "s",
        "c"
      ],
      [
        "v",
        "es"
      ],
      [
        "अ",
        "र"
      ],
      [
        "आ",
        "द"
      ],
      [
        "इ",
        "त"
      ],
      [
        "ड",
        "े"
      ],
      [
        "ण",
        "े"
      ],
      [
        "ण",
        "्"
      ],
      [
        "ण",
        "्य"
      ],
      [
        "द",
        "्र"
      ],
      [
        "म",
        "द्र"
      ],
      [
        "य",
        "णे"
      ],
      [
        "व",
        "्य"
      ],
      [
        "श",
        "्र"
      ],
      [
        "स",
        "र्"
      ],
      [
        "ा",
        "म"
      ],
      [
        "ि",
        "का"
      ],
      [
        "ro",
        "y"
      ],
      [
        "ak",
        "anda"
      ],
      [
        "sa",
        "ges"
      ],
      [
        "The",
        "re"
      ],
      [
        "mi",
        "ki"
      ],
      [
        "any",
        "akanda"
      ],
      [
        "ag",
        "ain"
      ],
      [
        "का",
        "ण्"
      ],
      [
        "bir",
        "ds"
      ],
      [
        "bod",
        "y"
      ],
      [
        "sar",
        "ga"
      ],
      [
        "Ar",
        "anyakanda"
      ],
      [
        "Val",
        "miki"
      ],
      [
        "अर",
        "ण्य"
      ],
      [
        "आद",
        "िका"
      ],
      [
        "मद्र",
        "ाम"
      ],
      [
        "व्य",
        "े"
      ],
      [
        "श्र",
        "ी"
      ],
      [
        "सर्",
        "ग"
      ],
      [
        "काण्",
        "डे"
      ],
      [
        "अरण्य",
        "काण्डे"
      ],
      [
        "आदिका",
        "व्ये"
      ],
      [
        "V",
        "a"
      ],
      [
        "g",
        "l"
      ],
      [
        "ा",
        "र्"
      ],
      [
        "ा",
        "यणे"
      ],
      [
        "ी",
        "क"
      ],
      [
        "is",
        "e"
      ],
      [
        "en",
        "e"
      ],
      [
        "with",
        "out"
      ],
      [
        "al",
        "s"
      ],
      [
        "be",
        "en"
      ],
      [
        "Th",
        "en"
      ],
      [
        "वा",
        "ल"
      ],
      [
        "स्",
        "सर्ग"
      ],
      [
        "मद्राम",
        "ायणे"
      ],
      [
        "h",
        "app"
      ],
      [
        "p",
        "ar"
      ],
      [
        "म",
        "ीक"
      ],
      [
        "्",
        "मीक"
      ],
      [
        "re",
        "e"
      ],
      [
        "al",
        "ong"
      ],
      [
        "fe",
        "ar"
      ],
      [
        "श्री",
        "मद्रामायणे"
      ],
      [
        "ार्",
        "ष"
      ],
      [
        "स्सर्ग",
        "ः"
      ],
      [
        "l",
        "ess"
      ],
      [
        "u",
        "d"
      ],
      [
        "w",
        "here"
      ],
      [
        "ी",
        "य"
      ],
      [
        "।",
        "।"
      ],
      [
        "at",
        "i"
      ],
      [
        "at",
        "t"
      ],
      [
        "li",
        "ght"
      ],
      [
        "ow",
        "ers"
      ],
      [
        "ay",
        "u"
      ],
      [
        "वाल",
        "्मीक"
      ],
      [
        "p",
        "an"
      ],
      [
        "s",
        "er"
      ],
      [
        "इत",
        "्य"
      ],
      [
        "b",
        "r"
      ],
      [
        "m",
        "an"
      ],
      [
        "he",
        "ad"
      ],
      [
        "st",
        "r"
      ],
      [
        "ti",
        "c"
      ],
      [
        "ti",
        "me"
      ],
      [
        "au",
        "ght"
      ],
      [
        "ang",
        "er"
      ],
      [
        "ey",
        "es"
      ],
      [
        "c",
        "ri"
      ],
      [
        "e",
        "red"
      ],
      [
        "l",
        "ot"
      ],
      [
        "p",
        "en"
      ],
      [
        "wh",
        "en"
      ],
      [
        "bo",
        "th"
      ],
      [
        "lad",
        "y"
      ],
      [
        "वाल्मीक",
        "ीय"
      ],
      [
        "इत्य",
        "ार्ष"
      ],
      [
        "J",
        "at"
      ],
      [
        "c",
        "ess"
      ],
      [
        "h",
        "ands"
      ],
      [
        "in",
        "e"
      ],
      [
        "as",
        "t"
      ],
      [
        "di",
        "f"
      ],
      [
        "Wh",
        "en"
      ],
      [
        "Jat",
        "ayu"
      ],
      [
        "c",
        "ed"
      ],
      [
        "c",
        "ame"
      ],
      [
        "d",
        "read"
      ],
      [
        "at",
        "ion"
      ],
      [
        "de",
        "ed"
      ],
      [
        "ke",
        "y"
      ],
      [
        "gr",
        "ound"
      ],
      [
        "dest",
        "roy"
      ],
      [
        "T",
        "his"
      ],
      [
        "f",
        "t"
      ],
      [
        "s",
        "es"
      ],
      [
        "as",
        "ty"
      ],
      [
        "ple",
        "as"
      ],
      [
        "t",
        "ru"
      ],
      [
        "the",
        "y"
      ],
      [
        "ra",
        "h"
      ],
      [
        "look",
        "ed"
      ],
      [
        "wat",
        "er"
      ],
      [
        "dread",
        "ful"
      ],
      [
        "e",
        "le"
      ],
      [
        "en",
        "ce"
      ],
      [
        "lo",
        "ve"
      ],
      [
        "ab",
        "du"
      ],
      [
        "fi",
        "c"
      ],
      [
        "ap",
        "pe"
      ],
      [
        "ul",
        "t"
      ],
      [
        "tw",
        "o"
      ],
      [
        "sk",
        "y"
      ],
      [
        "e",
        "m"
      ],
      [
        "g",
        "u"
      ],
      [
        "s",
        "in"
      ],
      [
        "s",
        "on"
      ],
      [
        "ar",
        "k"
      ],
      [
        "ent",
        "s"
      ],
      [
        "we",
        "ap"
      ],
      [
        "go",
        "d"
      ],
      [
        "pro",
        "te"
      ],
      [
        "ear",
        "th"
      ],
      [
        "lot",
        "us"
      ],
      [
        "इत्यार्ष",
        "े"
      ],
      [
        "d",
        "om"
      ],
      [
        "k",
        "in"
      ],
      [
        "o",
        "king"
      ],
      [
        "w",
        "ent"
      ],
      [
        "an",
        "im"
      ],
      [
        "to",
        "war"
      ],
      [
        "ch",
        "a"
      ],
      [
        "pl",
        "ace"
      ],
      [
        "fl",
        "owers"
      ],
      [
        "f",
        "ace"
      ],
      [
        "m",
        "ind"
      ],
      [
        "p",
        "ped"
      ],
      [
        "ou",
        "d"
      ],
      [
        "sh",
        "ar"
      ],
      [
        "ri",
        "ed"
      ],
      [
        "towar",
        "ds"
      ],
      [
        "W",
        "ith"
      ],
      [
        "th",
        "ose"
      ],
      [
        "an",
        "s"
      ],
      [
        "re",
        "t"
      ],
      [
        "er",
        "ing"
      ],
      [
        "as",
        "s"
      ],
      [
        "am",
        "p"
      ],
      [
        "are",
        "d"
      ],
      [
        "blo",
        "od"
      ],
      [
        "M",
        "ari"
      ],
      [
        "S",
        "e"
      ],
      [
        "S",
        "u"
      ],
      [
        "f",
        "ru"
      ],
      [
        "g",
        "i"
      ],
      [
        "in",
        "ing"
      ],
      [
        "at",
        "a"
      ],
      [
        "ow",
        "ing"
      ],
      [
        "w",
        "om"
      ],
      [
        "at",
        "ing"
      ],
      [
        "de",
        "v"
      ],
      [
        "te",
        "ll"
      ],
      [
        "ath",
        "a"
      ],
      [
        "Mari",
        "cha"
      ],
      [
        "W",
        "ho"
      ],
      [
        "p",
        "s"
      ],
      [
        "to",
        "ok"
      ],
      [
        "wh",
        "at"
      ],
      [
        "ri",
        "ver"
      ],
      [
        "ph",
        "ant"
      ],
      [
        "c",
        "es"
      ],
      [
        "d",
        "en"
      ],
      [
        "g",
        "th"
      ],
      [
        "i",
        "es"
      ],
      [
        "j",
        "o"
      ],
      [
        "l",
        "ed"
      ],
      [
        "s",
        "l"
      ],
      [
        "or",
        "t"
      ],
      [
        "ch",
        "ing"
      ],
      [
        "con",
        "t"
      ],
      [
        "hu",
        "ge"
      ],
      [
        "ele",
        "phant"
      ],
      [
        "a",
        "us"
      ],
      [
        "e",
        "ing"
      ],
      [
        "f",
        "our"
      ],
      [
        "w",
        "on"
      ],
      [
        "re",
        "p"
      ],
      [
        "ar",
        "my"
      ],
      [
        "st",
        "ren"
      ],
      [
        "res",
        "sed"
      ],
      [
        "whi",
        "le"
      ],
      [
        "stren",
        "gth"
      ],
      [
        "D",
        "as"
      ],
      [
        "O",
        "n"
      ],
      [
        "b",
        "and"
      ],
      [
        "j",
        "ust"
      ],
      [
        "u",
        "e"
      ],
      [
        "as",
        "ce"
      ],
      [
        "it",
        "e"
      ],
      [
        "ra",
        "ce"
      ],
      [
        "king",
        "dom"
      ],
      [
        "gold",
        "en"
      ],
      [
        "shar",
        "p"
      ],
      [
        "asce",
        "tic"
      ],
      [
        "D",
        "and"
      ],
      [
        "W",
        "hi"
      ],
      [
        "c",
        "ons"
      ],
      [
        "c",
        "reat"
      ],
      [
        "e",
        "ld"
      ],
      [
        "h",
        "us"
      ],
      [
        "i",
        "g"
      ],
      [
        "i",
        "ly"
      ],
      [
        "m",
        "ay"
      ],
      [
        "s",
        "to"
      ],
      [
        "th",
        "ous"
      ],
      [
        "on",
        "ly"
      ],
      [
        "as",
        "th"
      ],
      [
        "sh",
        "ining"
      ],
      [
        "weap",
        "ons"
      ],
      [
        "Dand",
        "aka"
      ],
      [
        "hus",
        "band"
      ],
      [
        "A",
        "g"
      ],
      [
        "g",
        "ed"
      ],
      [
        "m",
        "s"
      ],
      [
        "श",
        "स्सर्गः"
      ],
      [
        "lo",
        "oking"
      ],
      [
        "prin",
        "cess"
      ],
      [
        "H",
        "is"
      ],
      [
        "R",
        "a"
      ],
      [
        "c",
        "ould"
      ],
      [
        "d",
        "aught"
      ],
      [
        "i",
        "ll"
      ],
      [
        "l",
        "ds"
      ],
      [
        "ou",
        "ght"
      ],
      [
        "ak",
        "ing"
      ],
      [
        "sh",
        "i"
      ],
      [
        "ge",
        "t"
      ],
      [
        "ac",
        "com"
      ],
      [
        "Se",
        "eing"
      ],
      [
        "c",
        "ru"
      ],
      [
        "p",
        "ic"
      ],
      [
        "w",
        "ish"
      ],
      [
        "he",
        "av"
      ],
      [
        "li",
        "ve"
      ],
      [
        "wor",
        "lds"
      ],
      [
        "arm",
        "s"
      ],
      [
        "pen",
        "ance"
      ],
      [
        "jo",
        "y"
      ],
      [
        "Whi",
        "le"
      ],
      [
        "H",
        "aving"
      ],
      [
        "g",
        "ar"
      ],
      [
        "r",
        "ound"
      ],
      [
        "th",
        "ree"
      ],
      [
        "ing",
        "s"
      ],
      [
        "fi",
        "lled"
      ],
      [
        "te",
        "red"
      ],
      [
        "dis",
        "t"
      ],
      [
        "ide",
        "hi"
      ],
      [
        "gri",
        "ef"
      ],
      [
        "Jan",
        "asth"
      ],
      [
        "Va",
        "idehi"
      ],
      [
        "asty",
        "a"
      ],
      [
        "n",
        "a"
      ],
      [
        "p",
        "t"
      ],
      [
        "s",
        "or"
      ],
      [
        "s",
        "ur"
      ],
      [
        "v",
        "al"
      ],
      [
        "y",
        "a"
      ],
      [
        "de",
        "light"
      ],
      [
        "he",
        "l"
      ],
      [
        "le",
        "as"
      ],
      [
        "ch",
        "i"
      ],
      [
        "str",
        "ong"
      ],
      [
        "fru",
        "its"
      ],
      [
        "daught",
        "er"
      ],
      [
        "Janasth",
        "ana"
      ],
      [
        "A",
        "s"
      ],
      [
        "I",
        "f"
      ],
      [
        "S",
        "ur"
      ],
      [
        "b",
        "att"
      ],
      [
        "h",
        "or"
      ],
      [
        "m",
        "ed"
      ],
      [
        "r",
        "an"
      ],
      [
        "th",
        "us"
      ],
      [
        "th",
        "ough"
      ],
      [
        "re",
        "st"
      ],
      [
        "as",
        "k"
      ],
      [
        "fo",
        "ll"
      ],
      [
        "The",
        "y"
      ],
      [
        "fa",
        "ther"
      ],
      [
        "won",
        "der"
      ],
      [
        "B",
        "har"
      ],
      [
        "b",
        "ut"
      ],
      [
        "e",
        "v"
      ],
      [
        "f",
        "all"
      ],
      [
        "h",
        "ow"
      ],
      [
        "k",
        "sh"
      ],
      [
        "m",
        "ent"
      ],
      [
        "o",
        "ple"
      ],
      [
        "p",
        "i"
      ],
      [
        "th",
        "r"
      ],
      [
        "the",
        "n"
      ],
      [
        "de",
        "ar"
      ],
      [
        "fe",
        "ll"
      ],
      [
        "ent",
        "ered"
      ],
      [
        "ho",
        "ld"
      ],
      [
        "po",
        "s"
      ],
      [
        "tre",
        "e"
      ],
      [
        "qu",
        "i"
      ],
      [
        "Ag",
        "astya"
      ],
      [
        "sor",
        "row"
      ],
      [
        "Bhar",
        "ata"
      ],
      [
        "m",
        "is"
      ],
      [
        "n",
        "er"
      ],
      [
        "s",
        "en"
      ],
      [
        "re",
        "a"
      ],
      [
        "ar",
        "ing"
      ],
      [
        "ar",
        "atha"
      ],
      [
        "her",
        "o"
      ],
      [
        "go",
        "od"
      ],
      [
        "su",
        "ch"
      ],
      [
        "di",
        "re"
      ],
      [
        "arm",
        "ed"
      ],
      [
        "des",
        "i"
      ],
      [
        "hear",
        "d"
      ],
      [
        "being",
        "s"
      ],
      [
        "Ra",
        "gh"
      ],
      [
        "m",
        "bl"
      ],
      [
        "n",
        "g"
      ],
      [
        "know",
        "n"
      ],
      [
        "anim",
        "als"
      ],
      [
        "batt",
        "le"
      ],
      [
        "K",
        "a"
      ],
      [
        "b",
        "rah"
      ],
      [
        "c",
        "oun"
      ],
      [
        "g",
        "ot"
      ],
      [
        "l",
        "ar"
      ],
      [
        "m",
        "any"
      ],
      [
        "o",
        "b"
      ],
      [
        "r",
        "ad"
      ],
      [
        "you",
        "ng"
      ],
      [
        "who",
        "se"
      ],
      [
        "b",
        "ack"
      ],
      [
        "h",
        "and"
      ],
      [
        "t",
        "ake"
      ],
      [
        "st",
        "ru"
      ],
      [
        "ak",
        "ha"
      ],
      [
        "be",
        "lo"
      ],
      [
        "ch",
        "ar"
      ],
      [
        "all",
        "y"
      ],
      [
        "do",
        "es"
      ],
      [
        "can",
        "not"
      ],
      [
        "ank",
        "a"
      ],
      [
        "pan",
        "akha"
      ],
      [
        "deed",
        "s"
      ],
      [
        "Das",
        "aratha"
      ],
      [
        "Sur",
        "panakha"
      ],
      [
        "brah",
        "min"
      ],
      [
        "belo",
        "ved"
      ],
      [
        "L",
        "anka"
      ],
      [
        "b",
        "u"
      ],
      [
        "b",
        "er"
      ],
      [
        "e",
        "ver"
      ],
      [
        "f",
        "right"
      ],
      [
        "i",
        "ce"
      ],
      [
        "r",
        "is"
      ],
      [
        "s",
        "ing"
      ],
      [
        "u",
        "res"
      ],
      [
        "w",
        "ould"
      ],
      [
        "de",
        "ad"
      ],
      [
        "li",
        "ving"
      ],
      [
        "le",
        "ft"
      ],
      [
        "se",
        "en"
      ],
      [
        "fe",
        "ren"
      ],
      [
        "ra",
        "in"
      ],
      [
        "fi",
        "ght"
      ],
      [
        "pe",
        "ople"
      ],
      [
        "har",
        "ma"
      ],
      [
        "power",
        "ful"
      ],
      [
        "tru",
        "th"
      ],
      [
        "a",
        "ge"
      ],
      [
        "d",
        "harma"
      ],
      [
        "i",
        "ght"
      ],
      [
        "k",
        "en"
      ],
      [
        "m",
        "on"
      ],
      [
        "n",
        "ing"
      ],
      [
        "r",
        "un"
      ],
      [
        "re",
        "leas"
      ],
      [
        "li",
        "ant"
      ],
      [
        "al",
        "one"
      ],
      [
        "al",
        "so"
      ],
      [
        "dif",
        "feren"
      ],
      [
        ")",
        ","
      ],
      [
        "D",
        "us"
      ],
      [
        "S",
        "he"
      ],
      [
        "o",
        "on"
      ],
      [
        "s",
        "ou"
      ],
      [
        "t",
        "we"
      ],
      [
        "th",
        "under"
      ],
      [
        "ad",
        "d"
      ],
      [
        "un",
        "d"
      ],
      [
        "ap",
        "pro"
      ],
      [
        "mi",
        "es"
      ],
      [
        "Jan",
        "aka"
      ],
      [
        "prote",
        "ct"
      ],
      [
        "wom",
        "an"
      ],
      [
        "aus",
        "pic"
      ],
      [
        "thr",
        "ough"
      ],
      [
        "Dus",
        "ana"
      ],
      [
        "auspic",
        "ious"
      ],
      [
        "V",
        "ir"
      ],
      [
        "h",
        "it"
      ],
      [
        "n",
        "or"
      ],
      [
        "p",
        "it"
      ],
      [
        "p",
        "ath"
      ],
      [
        "ad",
        "ha"
      ],
      [
        "ti",
        "g"
      ],
      [
        "ir",
        "t"
      ],
      [
        "for",
        "t"
      ],
      [
        "fe",
        "red"
      ],
      [
        "ter",
        "s"
      ],
      [
        "demon",
        "ess"
      ],
      [
        "ang",
        "a"
      ],
      [
        "ry",
        "ing"
      ],
      [
        "car",
        "ried"
      ],
      [
        "ene",
        "my"
      ],
      [
        "ene",
        "mies"
      ],
      [
        "ati",
        "ons"
      ],
      [
        "thous",
        "and"
      ],
      [
        "Vir",
        "adha"
      ],
      [
        "M",
        "oon"
      ],
      [
        "P",
        "amp"
      ],
      [
        "a",
        "w"
      ],
      [
        "c",
        "ti"
      ],
      [
        "c",
        "ap"
      ],
      [
        "g",
        "ent"
      ],
      [
        "h",
        "um"
      ],
      [
        "i",
        "key"
      ],
      [
        "p",
        "on"
      ],
      [
        "s",
        "po"
      ],
      [
        "v",
        "irt"
      ],
      [
        "of",
        "fered"
      ],
      [
        "ow",
        "ed"
      ],
      [
        "com",
        "ple"
      ],
      [
        "du",
        "e"
      ],
      [
        "mo",
        "st"
      ],
      [
        "see",
        "ing"
      ],
      [
        "ma",
        "de"
      ],
      [
        "kin",
        "ds"
      ],
      [
        "heav",
        "en"
      ],
      [
        "Ka",
        "ikey"
      ],
      [
        "Pamp",
        "a"
      ],
      [
        "Kaikey",
        "i"
      ],
      [
        "A",
        "n"
      ],
      [
        "M",
        "y"
      ],
      [
        "b",
        "right"
      ],
      [
        "b",
        "orn"
      ],
      [
        "c",
        "ro"
      ],
      [
        "d",
        "id"
      ],
      [
        "l",
        "ing"
      ],
      [
        "n",
        "ed"
      ],
      [
        "w",
        "a"
      ],
      [
        "y",
        "ing"
      ],
      [
        "ं",
        "शस्सर्गः"
      ],
      [
        "ि",
        "ंशस्सर्गः"
      ],
      [
        "re",
        "m"
      ],
      [
        "on",
        "ce"
      ],
      [
        "li",
        "m"
      ],
      [
        "se",
        "ar"
      ],
      [
        "ot",
        "s"
      ],
      [
        "ve",
        "red"
      ],
      [
        "te",
        "en"
      ],
      [
        "ish",
        "ed"
      ],
      [
        "ck",
        "ed"
      ],
      [
        "orn",
        "ed"
      ],
      [
        "va",
        "liant"
      ],
      [
        "dif",
        "fic"
      ],
      [
        "cont",
        "ro"
      ],
      [
        "fright",
        "en"
      ],
      [
        "b",
        "ol"
      ],
      [
        "c",
        "lo"
      ],
      [
        "c",
        "all"
      ],
      [
        "d",
        "ed"
      ],
      [
        "d",
        "ar"
      ],
      [
        "f",
        "am"
      ],
      [
        "f",
        "ac"
      ],
      [
        "o",
        "ice"
      ],
      [
        "s",
        "ome"
      ],
      [
        "w",
        "ind"
      ],
      [
        "th",
        "in"
      ],
      [
        "th",
        "ing"
      ],
      [
        "and",
        "har"
      ],
      [
        "as",
        "su"
      ],
      [
        "de",
        "ep"
      ],
      [
        "st",
        "ay"
      ],
      [
        "sa",
        "cri"
      ],
      [
        "ti",
        "m"
      ],
      [
        "te",
        "ars"
      ],
      [
        "ear",
        "s"
      ],
      [
        "sto",
        "od"
      ],
      [
        "H",
        "ow"
      ],
      [
        "S",
        "ar"
      ],
      [
        "b",
        "urn"
      ],
      [
        "c",
        "ut"
      ],
      [
        "d",
        "ark"
      ],
      [
        "e",
        "at"
      ],
      [
        "t",
        "or"
      ],
      [
        "v",
        "ult"
      ],
      [
        "th",
        "ir"
      ],
      [
        "in",
        "ten"
      ],
      [
        "is",
        "ed"
      ],
      [
        "ri",
        "or"
      ],
      [
        "ra",
        "ge"
      ],
      [
        "fi",
        "ci"
      ],
      [
        "war",
        "rior"
      ],
      [
        "full",
        "y"
      ],
      [
        "mountain",
        "s"
      ],
      [
        "ni",
        "ght"
      ],
      [
        "hands",
        "ome"
      ],
      [
        "ascetic",
        "s"
      ],
      [
        "wonder",
        "ful"
      ],
      [
        "lar",
        "ge"
      ],
      [
        "differen",
        "t"
      ],
      [
        "D",
        "es"
      ],
      [
        "M",
        "ith"
      ],
      [
        "c",
        "le"
      ],
      [
        "c",
        "ol"
      ],
      [
        "d",
        "ro"
      ],
      [
        "g",
        "andhar"
      ],
      [
        "h",
        "ur"
      ],
      [
        "i",
        "ed"
      ],
      [
        "t",
        "urn"
      ],
      [
        "v",
        "oice"
      ],
      [
        "en",
        "joy"
      ],
      [
        "st",
        "and"
      ],
      [
        "li",
        "ed"
      ],
      [
        "pe",
        "ct"
      ],
      [
        "har",
        "sh"
      ],
      [
        "ic",
        "k"
      ],
      [
        "mo",
        "re"
      ],
      [
        "mo",
        "on"
      ],
      [
        "il",
        "a"
      ],
      [
        "ha",
        "ir"
      ],
      [
        "way",
        "s"
      ],
      [
        "cl",
        "oud"
      ],
      [
        "hear",
        "ing"
      ],
      [
        "happ",
        "y"
      ],
      [
        "dev",
        "ot"
      ],
      [
        "elephant",
        "s"
      ],
      [
        "rep",
        "lied"
      ],
      [
        "hor",
        "ses"
      ],
      [
        "hold",
        "ing"
      ],
      [
        "desi",
        "re"
      ],
      [
        "brahmin",
        "s"
      ],
      [
        "releas",
        "ed"
      ],
      [
        "thunder",
        "bol"
      ],
      [
        "Mith",
        "ila"
      ],
      [
        "B",
        "e"
      ],
      [
        "b",
        "re"
      ],
      [
        "f",
        "ri"
      ],
      [
        "i",
        "ance"
      ],
      [
        "l",
        "es"
      ],
      [
        "m",
        "it"
      ],
      [
        "v",
        "as"
      ],
      [
        "v",
        "ic"
      ],
      [
        "w",
        "and"
      ],
      [
        "in",
        "v"
      ],
      [
        "ou",
        "red"
      ],
      [
        "ar",
        "y"
      ],
      [
        "se",
        "a"
      ],
      [
        "se",
        "mbl"
      ],
      [
        "ti",
        "re"
      ],
      [
        "fo",
        "od"
      ],
      [
        "go",
        "ing"
      ],
      [
        "ter",
        "ri"
      ],
      [
        "kill",
        "ing"
      ],
      [
        "di",
        "v"
      ],
      [
        "ang",
        "ry"
      ],
      [
        "brother",
        "s"
      ],
      [
        "si",
        "x"
      ],
      [
        "char",
        "ac"
      ],
      [
        "thunderbol",
        "t"
      ],
      [
        "V",
        "ide"
      ],
      [
        "c",
        "er"
      ],
      [
        "d",
        "rin"
      ],
      [
        "e",
        "ll"
      ],
      [
        "h",
        "on"
      ],
      [
        "k",
        "a"
      ],
      [
        "m",
        "at"
      ],
      [
        "p",
        "re"
      ],
      [
        "p",
        "ri"
      ],
      [
        "s",
        "il"
      ],
      [
        "v",
        "an"
      ],
      [
        "w",
        "ise"
      ],
      [
        "er",
        "ce"
      ],
      [
        "is",
        "t"
      ],
      [
        "en",
        "g"
      ],
      [
        "it",
        "u"
      ],
      [
        "it",
        "ion"
      ],
      [
        "st",
        "ar"
      ],
      [
        "sh",
        "ed"
      ],
      [
        "be",
        "twe"
      ],
      [
        "ad",
        "orned"
      ],
      [
        "lo",
        "y"
      ],
      [
        "ent",
        "y"
      ],
      [
        "hi",
        "gh"
      ],
      [
        "bro",
        "ken"
      ],
      [
        "per",
        "form"
      ],
      [
        "gri",
        "va"
      ],
      [
        "spe",
        "ak"
      ],
      [
        "destroy",
        "ed"
      ],
      [
        "ev",
        "il"
      ],
      [
        "An",
        "d"
      ],
      [
        "Vide",
        "ha"
      ],
      [
        "betwe",
        "en"
      ],
      [
        "A",
        "l"
      ],
      [
        "b",
        "s"
      ],
      [
        "b",
        "ri"
      ],
      [
        "e",
        "th"
      ],
      [
        "i",
        "le"
      ],
      [
        "p",
        "al"
      ],
      [
        "p",
        "res"
      ],
      [
        "p",
        "ass"
      ],
      [
        "s",
        "wi"
      ],
      [
        "w",
        "ant"
      ],
      [
        "de",
        "red"
      ],
      [
        "li",
        "f"
      ],
      [
        "ak",
        "ut"
      ],
      [
        "av",
        "es"
      ],
      [
        "ge",
        "ms"
      ],
      [
        "ck",
        "s"
      ],
      [
        "beau",
        "ty"
      ],
      [
        "ser",
        "p"
      ],
      [
        "love",
        "ly"
      ],
      [
        "appe",
        "ared"
      ],
      [
        "Su",
        "griva"
      ],
      [
        "gi",
        "ve"
      ],
      [
        "hel",
        "p"
      ],
      [
        "spo",
        "ke"
      ],
      [
        "charac",
        "ter"
      ],
      [
        "T",
        "o"
      ],
      [
        "Y",
        "ama"
      ],
      [
        "f",
        "ind"
      ],
      [
        "h",
        "anga"
      ],
      [
        "j",
        "e"
      ],
      [
        "p",
        "a"
      ],
      [
        "p",
        "tion"
      ],
      [
        "r",
        "on"
      ],
      [
        "s",
        "al"
      ],
      [
        "s",
        "we"
      ],
      [
        "u",
        "se"
      ],
      [
        "v",
        "ari"
      ],
      [
        "ou",
        "th"
      ],
      [
        "en",
        "tire"
      ],
      [
        "at",
        "tered"
      ],
      [
        "wi",
        "ld"
      ],
      [
        "am",
        "ed"
      ],
      [
        "am",
        "ents"
      ],
      [
        "it",
        "ed"
      ],
      [
        "sh",
        "all"
      ],
      [
        "wh",
        "om"
      ],
      [
        "fi",
        "erce"
      ],
      [
        "wor",
        "shi"
      ],
      [
        "mo",
        "ve"
      ],
      [
        "ag",
        "ed"
      ],
      [
        "qu",
        "ick"
      ],
      [
        "si",
        "ble"
      ],
      [
        "no",
        "ble"
      ],
      [
        "Wh",
        "at"
      ],
      [
        "other",
        "s"
      ],
      [
        "righteous",
        "ness"
      ],
      [
        "key",
        "s"
      ],
      [
        "abdu",
        "cted"
      ],
      [
        "ret",
        "urn"
      ],
      [
        "round",
        "ed"
      ],
      [
        "add",
        "ressed"
      ],
      [
        "comple",
        "x"
      ],
      [
        "diffic",
        "ult"
      ],
      [
        "gandhar",
        "vas"
      ],
      [
        "B",
        "rah"
      ],
      [
        "J",
        "ust"
      ],
      [
        "K",
        "u"
      ],
      [
        "b",
        "ank"
      ],
      [
        "d",
        "y"
      ],
      [
        "d",
        "ay"
      ],
      [
        "i",
        "ke"
      ],
      [
        "m",
        "om"
      ],
      [
        "n",
        "ame"
      ],
      [
        "p",
        "ers"
      ],
      [
        "s",
        "id"
      ],
      [
        "or",
        "ious"
      ],
      [
        "it",
        "ies"
      ],
      [
        "st",
        "ate"
      ],
      [
        "ak",
        "es"
      ],
      [
        "be",
        "h"
      ],
      [
        "ce",
        "ed"
      ],
      [
        "fe",
        "et"
      ],
      [
        "ab",
        "and"
      ],
      [
        "ab",
        "hanga"
      ],
      [
        "id",
        "ing"
      ],
      [
        "ok",
        "ed"
      ],
      [
        "You",
        "r"
      ],
      [
        "mo",
        "ther"
      ],
      [
        "su",
        "b"
      ],
      [
        "su",
        "re"
      ],
      [
        "ey",
        "ed"
      ],
      [
        "happ",
        "ily"
      ],
      [
        "pan",
        "ied"
      ],
      [
        "appe",
        "ar"
      ],
      [
        "four",
        "teen"
      ],
      [
        "cru",
        "el"
      ],
      [
        "delight",
        "ful"
      ],
      [
        "sen",
        "ses"
      ],
      [
        "dire",
        "ction"
      ],
      [
        "Sar",
        "abhanga"
      ],
      [
        "fici",
        "al"
      ],
      [
        "div",
        "ine"
      ],
      [
        "lif",
        "ted"
      ],
      [
        "mom",
        "ent"
      ],
      [
        "E",
        "ven"
      ],
      [
        "W",
        "e"
      ],
      [
        "W",
        "here"
      ],
      [
        "b",
        "ed"
      ],
      [
        "c",
        "ity"
      ],
      [
        "g",
        "one"
      ],
      [
        "g",
        "race"
      ],
      [
        "l",
        "t"
      ],
      [
        "m",
        "ake"
      ],
      [
        "m",
        "outh"
      ],
      [
        "p",
        "row"
      ],
      [
        "s",
        "th"
      ],
      [
        "z",
        "ing"
      ],
      [
        "म",
        "स्सर्गः"
      ],
      [
        "an",
        "other"
      ],
      [
        "re",
        "sembl"
      ],
      [
        "at",
        "tain"
      ],
      [
        "wi",
        "eld"
      ],
      [
        "it",
        "ting"
      ],
      [
        "li",
        "on"
      ],
      [
        "al",
        "th"
      ],
      [
        "al",
        "ways"
      ],
      [
        "be",
        "fore"
      ],
      [
        "ch",
        "est"
      ],
      [
        "ce",
        "i"
      ],
      [
        "sa",
        "c"
      ],
      [
        "ir",
        "a"
      ],
      [
        "ab",
        "ari"
      ],
      [
        "ac",
        "t"
      ],
      [
        "ur",
        "ing"
      ],
      [
        "res",
        "pect"
      ],
      [
        "pro",
        "ceed"
      ],
      [
        "ren",
        "ched"
      ],
      [
        "si",
        "de"
      ],
      [
        "chariot",
        "e"
      ],
      [
        "orn",
        "aments"
      ],
      [
        "co",
        "vered"
      ],
      [
        "off",
        "ering"
      ],
      [
        "There",
        "after"
      ],
      [
        "gl",
        "owing"
      ],
      [
        "head",
        "ed"
      ],
      [
        "lotus",
        "es"
      ],
      [
        "val",
        "our"
      ],
      [
        "pos",
        "sible"
      ],
      [
        "coun",
        "t"
      ],
      [
        "ber",
        "a"
      ],
      [
        "sou",
        "l"
      ],
      [
        "thin",
        "k"
      ],
      [
        "fri",
        "end"
      ],
      [
        "bri",
        "ll"
      ],
      [
        "pass",
        "ion"
      ],
      [
        "complex",
        "ion"
      ],
      [
        "Ku",
        "bera"
      ],
      [
        "prow",
        "ess"
      ],
      [
        "'",
        "."
      ],
      [
        "G",
        "od"
      ],
      [
        "K",
        "akut"
      ],
      [
        "L",
        "et"
      ],
      [
        "b",
        "es"
      ],
      [
        "d",
        "ing"
      ],
      [
        "d",
        "one"
      ],
      [
        "d",
        "well"
      ],
      [
        "f",
        "ar"
      ],
      [
        "h",
        "aving"
      ],
      [
        "h",
        "und"
      ],
      [
        "i",
        "ant"
      ],
      [
        "l",
        "ust"
      ],
      [
        "n",
        "at"
      ],
      [
        "p",
        "ut"
      ],
      [
        "r",
        "as"
      ],
      [
        "s",
        "words"
      ],
      [
        "t",
        "ask"
      ],
      [
        "u",
        "ous"
      ],
      [
        "ष",
        "्"
      ],
      [
        "्",
        "च"
      ],
      [
        "th",
        "i"
      ],
      [
        "th",
        "an"
      ],
      [
        "th",
        "ought"
      ],
      [
        "an",
        "ch"
      ],
      [
        "re",
        "l"
      ],
      [
        "re",
        "fu"
      ],
      [
        "ou",
        "b"
      ],
      [
        "ar",
        "ri"
      ],
      [
        "to",
        "ge"
      ],
      [
        "st",
        "ri"
      ],
      [
        "le",
        "t"
      ],
      [
        "ak",
        "en"
      ],
      [
        "se",
        "t"
      ],
      [
        "av",
        "ari"
      ],
      [
        "us",
        "ed"
      ],
      [
        "fo",
        "ld"
      ],
      [
        "wor",
        "d"
      ],
      [
        "com",
        "ing"
      ],
      [
        "him",
        "self"
      ],
      [
        "gr",
        "ass"
      ],
      [
        "des",
        "er"
      ],
      [
        "ne",
        "ver"
      ],
      [
        "long",
        "armed"
      ],
      [
        "vi",
        "ce"
      ],
      [
        "sc",
        "ion"
      ],
      [
        "cri",
        "ption"
      ],
      [
        "mind",
        "ed"
      ],
      [
        "accom",
        "pl"
      ],
      [
        "accom",
        "panied"
      ],
      [
        "gar",
        "den"
      ],
      [
        "sur",
        "rounded"
      ],
      [
        "fall",
        "en"
      ],
      [
        "ksh",
        "na"
      ],
      [
        "pi",
        "er"
      ],
      [
        "Ragh",
        "u"
      ],
      [
        "contro",
        "l"
      ],
      [
        "Des",
        "cription"
      ],
      [
        "star",
        "ted"
      ],
      [
        "loy",
        "al"
      ],
      [
        "swi",
        "ft"
      ],
      [
        "swe",
        "et"
      ],
      [
        "sac",
        "red"
      ],
      [
        "chariote",
        "er"
      ],
      [
        "Kakut",
        "sth"
      ],
      [
        "toge",
        "ther"
      ],
      [
        "B",
        "y"
      ],
      [
        "K",
        "aband"
      ],
      [
        "b",
        "ig"
      ],
      [
        "c",
        "ing"
      ],
      [
        "c",
        "au"
      ],
      [
        "f",
        "ron"
      ],
      [
        "k",
        "ar"
      ],
      [
        "l",
        "and"
      ],
      [
        "o",
        "p"
      ],
      [
        "p",
        "ra"
      ],
      [
        "p",
        "rom"
      ],
      [
        "s",
        "y"
      ],
      [
        "t",
        "ra"
      ],
      [
        "v",
        "is"
      ],
      [
        "in",
        "cl"
      ],
      [
        "is",
        "ten"
      ],
      [
        "to",
        "o"
      ],
      [
        "de",
        "c"
      ],
      [
        "ro",
        "ots"
      ],
      [
        "le",
        "aving"
      ],
      [
        "sa",
        "ying"
      ],
      [
        "ti",
        "kshna"
      ],
      [
        "ly",
        "ing"
      ],
      [
        "we",
        "alth"
      ],
      [
        "wor",
        "th"
      ],
      [
        "row",
        "n"
      ],
      [
        "ex",
        "ile"
      ],
      [
        "read",
        "y"
      ],
      [
        "hear",
        "t"
      ],
      [
        "again",
        "st"
      ],
      [
        "abdu",
        "ct"
      ],
      [
        "Su",
        "tikshna"
      ],
      [
        "wom",
        "en"
      ],
      [
        "creat",
        "ed"
      ],
      [
        "appro",
        "a"
      ],
      [
        "turn",
        "ed"
      ],
      [
        "devot",
        "ion"
      ],
      [
        "God",
        "avari"
      ],
      [
        "fold",
        "ed"
      ],
      [
        "Kaband",
        "ha"
      ],
      [
        "H",
        "er"
      ],
      [
        "L",
        "ord"
      ],
      [
        "L",
        "ike"
      ],
      [
        "S",
        "h"
      ],
      [
        "V",
        "is"
      ],
      [
        "c",
        "ou"
      ],
      [
        "c",
        "ur"
      ],
      [
        "c",
        "ious"
      ],
      [
        "d",
        "renched"
      ],
      [
        "e",
        "very"
      ],
      [
        "f",
        "lo"
      ],
      [
        "g",
        "ave"
      ],
      [
        "k",
        "s"
      ],
      [
        "m",
        "id"
      ],
      [
        "n",
        "ear"
      ],
      [
        "o",
        "th"
      ],
      [
        "p",
        "u"
      ],
      [
        "p",
        "ure"
      ],
      [
        "s",
        "w"
      ],
      [
        "t",
        "ou"
      ],
      [
        "t",
        "ar"
      ],
      [
        "ञ",
        "्च"
      ],
      [
        "त",
        "्र"
      ],
      [
        "प",
        "ञ्च"
      ],
      [
        "in",
        "ess"
      ],
      [
        "or",
        "der"
      ],
      [
        "as",
        "h"
      ],
      [
        "wi",
        "cked"
      ],
      [
        "am",
        "ing"
      ],
      [
        "st",
        "re"
      ],
      [
        "le",
        "ave"
      ],
      [
        "wh",
        "ite"
      ],
      [
        "me",
        "an"
      ],
      [
        "we",
        "aring"
      ],
      [
        "fi",
        "f"
      ],
      [
        "oun",
        "ds"
      ],
      [
        "pe",
        "t"
      ],
      [
        "res",
        "s"
      ],
      [
        "pro",
        "per"
      ],
      [
        "ate",
        "ly"
      ],
      [
        "bow",
        "s"
      ],
      [
        "so",
        "on"
      ],
      [
        "Wh",
        "y"
      ],
      [
        "vi",
        "ol"
      ],
      [
        "br",
        "ing"
      ],
      [
        "abdu",
        "ction"
      ],
      [
        "sin",
        "ful"
      ],
      [
        "gi",
        "ven"
      ],
      [
        "rea",
        "ched"
      ],
      [
        "rem",
        "ain"
      ],
      [
        "call",
        "ed"
      ],
      [
        "sacri",
        "ficial"
      ],
      [
        "cle",
        "ar"
      ],
      [
        "col",
        "our"
      ],
      [
        "eng",
        "aged"
      ],
      [
        "quick",
        "ly"
      ],
      [
        "ष्",
        "ट"
      ],
      [
        "cau",
        "se"
      ],
      [
        "worth",
        "y"
      ],
      [
        ".",
        "'"
      ],
      [
        "N",
        "ow"
      ],
      [
        "T",
        "ris"
      ],
      [
        "b",
        "an"
      ],
      [
        "b",
        "ly"
      ],
      [
        "l",
        "oud"
      ],
      [
        "m",
        "u"
      ],
      [
        "n",
        "asty"
      ],
      [
        "o",
        "ld"
      ],
      [
        "p",
        "as"
      ],
      [
        "s",
        "s"
      ],
      [
        "s",
        "pl"
      ],
      [
        "t",
        "ri"
      ],
      [
        "त",
        "मस्सर्गः"
      ],
      [
        "in",
        "deed"
      ],
      [
        "ou",
        "ds"
      ],
      [
        "ar",
        "ound"
      ],
      [
        "or",
        "y"
      ],
      [
        "wi",
        "ves"
      ],
      [
        "de",
        "fe"
      ],
      [
        "av",
        "a"
      ],
      [
        "be",
        "ll"
      ],
      [
        "ad",
        "van"
      ],
      [
        "sa",
        "fe"
      ],
      [
        "fe",
        "lt"
      ],
      [
        "fi",
        "g"
      ],
      [
        "fi",
        "ed"
      ],
      [
        "ac",
        "es"
      ],
      [
        "ac",
        "tion"
      ],
      [
        "te",
        "eth"
      ],
      [
        "ter",
        "ing"
      ],
      [
        "Th",
        "at"
      ],
      [
        "fl",
        "es"
      ],
      [
        "cl",
        "ouds"
      ],
      [
        "bir",
        "d"
      ],
      [
        "dest",
        "ru"
      ],
      [
        "gl",
        "orious"
      ],
      [
        "ud",
        "ing"
      ],
      [
        "ask",
        "ed"
      ],
      [
        "pi",
        "e"
      ],
      [
        "mon",
        "keys"
      ],
      [
        "tig",
        "ers"
      ],
      [
        "cti",
        "ons"
      ],
      [
        "gent",
        "le"
      ],
      [
        "hum",
        "an"
      ],
      [
        "lim",
        "bs"
      ],
      [
        "sear",
        "ch"
      ],
      [
        "frighten",
        "ing"
      ],
      [
        "eat",
        "en"
      ],
      [
        "vult",
        "ure"
      ],
      [
        "wand",
        "ering"
      ],
      [
        "dy",
        "nasty"
      ],
      [
        "beh",
        "ind"
      ],
      [
        "refu",
        "ge"
      ],
      [
        "pier",
        "ced"
      ],
      [
        "fron",
        "t"
      ],
      [
        "incl",
        "uding"
      ],
      [
        "A",
        "f"
      ],
      [
        "B",
        "ut"
      ],
      [
        "L",
        "o"
      ],
      [
        "V",
        "i"
      ],
      [
        "c",
        "al"
      ],
      [
        "d",
        "oub"
      ],
      [
        "e",
        "qu"
      ],
      [
        "f",
        "ish"
      ],
      [
        "f",
        "ree"
      ],
      [
        "l",
        "ake"
      ],
      [
        "m",
        "ust"
      ],
      [
        "o",
        "de"
      ],
      [
        "p",
        "ast"
      ],
      [
        "s",
        "per"
      ],
      [
        "s",
        "word"
      ],
      [
        "w",
        "n"
      ],
      [
        "y",
        "ears"
      ],
      [
        "ि",
        "तमस्सर्गः"
      ],
      [
        "in",
        "ted"
      ],
      [
        "er",
        "i"
      ],
      [
        "is",
        "ters"
      ],
      [
        "to",
        "p"
      ],
      [
        "it",
        "ing"
      ],
      [
        "li",
        "er"
      ],
      [
        "li",
        "ved"
      ],
      [
        "se",
        "l"
      ],
      [
        "se",
        "par"
      ],
      [
        "al",
        "k"
      ],
      [
        "ce",
        "pt"
      ],
      [
        "lo",
        "st"
      ],
      [
        "fe",
        "el"
      ],
      [
        "we",
        "lf"
      ],
      [
        "un",
        "able"
      ],
      [
        "wor",
        "k"
      ],
      [
        "ac",
        "c"
      ],
      [
        "ac",
        "count"
      ],
      [
        "ess",
        "ed"
      ],
      [
        "tre",
        "me"
      ],
      [
        "pro",
        "du"
      ],
      [
        "con",
        "se"
      ],
      [
        "dis",
        "ci"
      ],
      [
        "bl",
        "a"
      ],
      [
        "ex",
        "treme"
      ],
      [
        "af",
        "f"
      ],
      [
        "tw",
        "enty"
      ],
      [
        "gl",
        "it"
      ],
      [
        "thous",
        "ands"
      ],
      [
        "dist",
        "ance"
      ],
      [
        "chi",
        "ef"
      ],
      [
        "foll",
        "owing"
      ],
      [
        "rad",
        "iance"
      ],
      [
        "rain",
        "ed"
      ],
      [
        "dar",
        "ts"
      ],
      [
        "burn",
        "ing"
      ],
      [
        "drin",
        "k"
      ],
      [
        "Al",
        "as"
      ],
      [
        "Brah",
        "ma"
      ],
      [
        "sub",
        "du"
      ],
      [
        "cou",
        "rage"
      ],
      [
        "Tris",
        "ira"
      ],
      [
        "fles",
        "h"
      ],
      [
        "destru",
        "ction"
      ],
      [
        "welf",
        "are"
      ],
      [
        "G",
        "ar"
      ],
      [
        "b",
        "ark"
      ],
      [
        "c",
        "end"
      ],
      [
        "e",
        "i"
      ],
      [
        "f",
        "ine"
      ],
      [
        "j",
        "ack"
      ],
      [
        "l",
        "isten"
      ],
      [
        "m",
        "er"
      ],
      [
        "n",
        "u"
      ],
      [
        "o",
        "id"
      ],
      [
        "s",
        "ad"
      ],
      [
        "s",
        "ent"
      ],
      [
        "t",
        "a"
      ],
      [
        "w",
        "is"
      ],
      [
        "y",
        "o"
      ],
      [
        "च",
        "त"
      ],
      [
        "प",
        "्"
      ],
      [
        "स",
        "प्"
      ],
      [
        "on",
        "es"
      ],
      [
        "as",
        "ter"
      ],
      [
        "ll",
        "ing"
      ],
      [
        "it",
        "ra"
      ],
      [
        "de",
        "p"
      ],
      [
        "st",
        "ret"
      ],
      [
        "le",
        "ep"
      ],
      [
        "ot",
        "t"
      ],
      [
        "ri",
        "ous"
      ],
      [
        "om",
        "en"
      ],
      [
        "ra",
        "ged"
      ],
      [
        "ab",
        "ode"
      ],
      [
        "fi",
        "ve"
      ],
      [
        "fi",
        "gu"
      ],
      [
        "ful",
        "fi"
      ],
      [
        "com",
        "m"
      ],
      [
        "com",
        "par"
      ],
      [
        "forest",
        "s"
      ],
      [
        "au",
        "st"
      ],
      [
        "pro",
        "sper"
      ],
      [
        "du",
        "ty"
      ],
      [
        "mo",
        "ving"
      ],
      [
        "con",
        "d"
      ],
      [
        "ten",
        "headed"
      ],
      [
        "no",
        "ose"
      ],
      [
        "form",
        "ed"
      ],
      [
        "bod",
        "ies"
      ],
      [
        "ne",
        "ed"
      ],
      [
        "ne",
        "ck"
      ],
      [
        "co",
        "ll"
      ],
      [
        "wat",
        "ers"
      ],
      [
        "blo",
        "om"
      ],
      [
        "car",
        "rying"
      ],
      [
        "fa",
        "ith"
      ],
      [
        "There",
        "fore"
      ],
      [
        "Va",
        "li"
      ],
      [
        "ud",
        "a"
      ],
      [
        "destroy",
        "er"
      ],
      [
        "gu",
        "ise"
      ],
      [
        "river",
        "s"
      ],
      [
        "qui",
        "ver"
      ],
      [
        "dire",
        "ctions"
      ],
      [
        "young",
        "er"
      ],
      [
        "stru",
        "ck"
      ],
      [
        "clo",
        "se"
      ],
      [
        "large",
        "eyed"
      ],
      [
        "appear",
        "ance"
      ],
      [
        "loyal",
        "ty"
      ],
      [
        "pie",
        "ces"
      ],
      [
        "Af",
        "ter"
      ],
      [
        "Gar",
        "uda"
      ],
      [
        "compar",
        "able"
      ],
      [
        "D",
        "e"
      ],
      [
        "S",
        "abari"
      ],
      [
        "T",
        "ell"
      ],
      [
        "a",
        "im"
      ],
      [
        "b",
        "ra"
      ],
      [
        "c",
        "rying"
      ],
      [
        "c",
        "ott"
      ],
      [
        "f",
        "in"
      ],
      [
        "f",
        "le"
      ],
      [
        "f",
        "ast"
      ],
      [
        "k",
        "ind"
      ],
      [
        "l",
        "u"
      ],
      [
        "m",
        "ar"
      ],
      [
        "m",
        "ity"
      ],
      [
        "o",
        "pen"
      ],
      [
        "p",
        "ur"
      ],
      [
        "s",
        "n"
      ],
      [
        "s",
        "ion"
      ],
      [
        "s",
        "ake"
      ],
      [
        "w",
        "he"
      ],
      [
        "th",
        "ro"
      ],
      [
        "an",
        "as"
      ],
      [
        "the",
        "red"
      ],
      [
        "re",
        "ve"
      ],
      [
        "er",
        "able"
      ],
      [
        "is",
        "on"
      ],
      [
        "en",
        "mity"
      ],
      [
        "as",
        "e"
      ],
      [
        "he",
        "ld"
      ],
      [
        "se",
        "as"
      ],
      [
        "av",
        "ati"
      ],
      [
        "be",
        "came"
      ],
      [
        "ch",
        "er"
      ],
      [
        "her",
        "ds"
      ],
      [
        "king",
        "s"
      ],
      [
        "te",
        "m"
      ],
      [
        "He",
        "re"
      ],
      [
        "du",
        "ct"
      ],
      [
        "ear",
        "lier"
      ],
      [
        "per",
        "i"
      ],
      [
        "bl",
        "ue"
      ],
      [
        "up",
        "on"
      ],
      [
        "hermita",
        "ges"
      ],
      [
        "chariot",
        "s"
      ],
      [
        "min",
        "isters"
      ],
      [
        "spe",
        "ed"
      ],
      [
        "sk",
        "in"
      ],
      [
        "att",
        "ack"
      ],
      [
        "br",
        "ought"
      ],
      [
        "pleas",
        "ed"
      ],
      [
        "pleas",
        "ing"
      ],
      [
        "den",
        "se"
      ],
      [
        "sur",
        "vi"
      ],
      [
        "hor",
        "ri"
      ],
      [
        "Ragh",
        "us"
      ],
      [
        "tig",
        "er"
      ],
      [
        "fort",
        "un"
      ],
      [
        "cap",
        "able"
      ],
      [
        "virt",
        "ue"
      ],
      [
        "wa",
        "ist"
      ],
      [
        "fam",
        "ily"
      ],
      [
        "assu",
        "med"
      ],
      [
        "hur",
        "t"
      ],
      [
        "terri",
        "fic"
      ],
      [
        "cer",
        "tain"
      ],
      [
        "pres",
        "ence"
      ],
      [
        "vari",
        "ous"
      ],
      [
        "worshi",
        "pped"
      ],
      [
        "cei",
        "ved"
      ],
      [
        "dwell",
        "ing"
      ],
      [
        "loud",
        "ly"
      ],
      [
        "doub",
        "t"
      ],
      [
        "equ",
        "al"
      ],
      [
        "eri",
        "al"
      ],
      [
        "extreme",
        "ly"
      ],
      [
        "सप्",
        "त"
      ],
      [
        "cott",
        "age"
      ],
      [
        "A",
        "t"
      ],
      [
        "B",
        "oth"
      ],
      [
        "E",
        "n"
      ],
      [
        "F",
        "or"
      ],
      [
        "M",
        "a"
      ],
      [
        "M",
        "and"
      ],
      [
        "c",
        "aught"
      ],
      [
        "d",
        "uring"
      ],
      [
        "e",
        "en"
      ],
      [
        "f",
        "er"
      ],
      [
        "k",
        "id"
      ],
      [
        "p",
        "any"
      ],
      [
        "p",
        "ort"
      ],
      [
        "s",
        "ons"
      ],
      [
        "s",
        "mo"
      ],
      [
        "s",
        "ame"
      ],
      [
        "t",
        "run"
      ],
      [
        "v",
        "ak"
      ],
      [
        "ए",
        "क"
      ],
      [
        "्",
        "वा"
      ],
      [
        "in",
        "stru"
      ],
      [
        "en",
        "er"
      ],
      [
        "at",
        "ri"
      ],
      [
        "it",
        "i"
      ],
      [
        "it",
        "al"
      ],
      [
        "li",
        "c"
      ],
      [
        "li",
        "ves"
      ],
      [
        "le",
        "ad"
      ],
      [
        "se",
        "ven"
      ],
      [
        "sh",
        "o"
      ],
      [
        "ch",
        "as"
      ],
      [
        "gh",
        "s"
      ],
      [
        "ad",
        "vice"
      ],
      [
        "ita",
        "ble"
      ],
      [
        "ent",
        "ly"
      ],
      [
        "we",
        "ep"
      ],
      [
        "ra",
        "id"
      ],
      [
        "fo",
        "ot"
      ],
      [
        "ful",
        "gent"
      ],
      [
        "your",
        "self"
      ],
      [
        "har",
        "atha"
      ],
      [
        "pl",
        "ay"
      ],
      [
        "war",
        "d"
      ],
      [
        "ound",
        "ed"
      ],
      [
        "il",
        "ed"
      ],
      [
        "di",
        "e"
      ],
      [
        "con",
        "duct"
      ],
      [
        "ate",
        "ver"
      ],
      [
        "ten",
        "ed"
      ],
      [
        "bl",
        "essed"
      ],
      [
        "ex",
        "ce"
      ],
      [
        "cl",
        "ad"
      ],
      [
        "look",
        "s"
      ],
      [
        "moun",
        "t"
      ],
      [
        "ne",
        "w"
      ],
      [
        "spe",
        "ars"
      ],
      [
        "spe",
        "aking"
      ],
      [
        "prin",
        "ces"
      ],
      [
        "br",
        "ave"
      ],
      [
        "pleas",
        "ure"
      ],
      [
        "sin",
        "ce"
      ],
      [
        "prote",
        "ction"
      ],
      [
        "prote",
        "cted"
      ],
      [
        "anim",
        "al"
      ],
      [
        "sl",
        "ain"
      ],
      [
        "Das",
        "haratha"
      ],
      [
        "sing",
        "le"
      ],
      [
        "pon",
        "ds"
      ],
      [
        "virt",
        "uous"
      ],
      [
        "frighten",
        "ed"
      ],
      [
        "warrior",
        "s"
      ],
      [
        "dro",
        "pped"
      ],
      [
        "stand",
        "ing"
      ],
      [
        "vic",
        "tor"
      ],
      [
        "high",
        "ly"
      ],
      [
        "pers",
        "on"
      ],
      [
        "sure",
        "ly"
      ],
      [
        "nat",
        "ure"
      ],
      [
        "Kakutsth",
        "a"
      ],
      [
        "mu",
        "ch"
      ],
      [
        "advan",
        "ced"
      ],
      [
        "fig",
        "ure"
      ],
      [
        "bla",
        "zing"
      ],
      [
        "glit",
        "tering"
      ],
      [
        "yo",
        "j"
      ],
      [
        "figu",
        "red"
      ],
      [
        "kid",
        "n"
      ],
      [
        "A",
        "k"
      ],
      [
        "A",
        "ll"
      ],
      [
        "G",
        "o"
      ],
      [
        "S",
        "o"
      ],
      [
        "a",
        "x"
      ],
      [
        "b",
        "at"
      ],
      [
        "c",
        "re"
      ],
      [
        "c",
        "at"
      ],
      [
        "c",
        "ave"
      ],
      [
        "c",
        "ry"
      ],
      [
        "c",
        "aus"
      ],
      [
        "e",
        "ight"
      ],
      [
        "f",
        "al"
      ],
      [
        "g",
        "ro"
      ],
      [
        "h",
        "ya"
      ],
      [
        "h",
        "aust"
      ],
      [
        "l",
        "a"
      ],
      [
        "l",
        "er"
      ],
      [
        "l",
        "it"
      ],
      [
        "l",
        "ands"
      ],
      [
        "l",
        "aw"
      ],
      [
        "m",
        "ing"
      ],
      [
        "m",
        "aking"
      ],
      [
        "n",
        "one"
      ],
      [
        "p",
        "es"
      ],
      [
        "p",
        "ite"
      ],
      [
        "r",
        "ans"
      ],
      [
        "s",
        "mi"
      ],
      [
        "s",
        "sed"
      ],
      [
        "s",
        "ounds"
      ],
      [
        "s",
        "leep"
      ],
      [
        "t",
        "aking"
      ],
      [
        "w",
        "o"
      ],
      [
        "w",
        "in"
      ],
      [
        "z",
        "ed"
      ],
      [
        "৷",
        "৷"
      ],
      [
        "re",
        "al"
      ],
      [
        "at",
        "ten"
      ],
      [
        "es",
        "e"
      ],
      [
        "as",
        "ts"
      ],
      [
        "wi",
        "t"
      ],
      [
        "am",
        "s"
      ],
      [
        "it",
        "ated"
      ],
      [
        "de",
        "l"
      ],
      [
        "st",
        "e"
      ],
      [
        "st",
        "ones"
      ],
      [
        "li",
        "ps"
      ],
      [
        "se",
        "ated"
      ],
      [
        "se",
        "cond"
      ],
      [
        "sh",
        "ow"
      ],
      [
        "ow",
        "s"
      ],
      [
        "be",
        "g"
      ],
      [
        "be",
        "cause"
      ],
      [
        "ch",
        "o"
      ],
      [
        "ke",
        "ep"
      ],
      [
        "ti",
        "l"
      ],
      [
        "ti",
        "v"
      ],
      [
        "ti",
        "ons"
      ],
      [
        "for",
        "ce"
      ],
      [
        "fe",
        "ma"
      ],
      [
        "me",
        "ans"
      ],
      [
        "us",
        "ion"
      ],
      [
        "un",
        "a"
      ],
      [
        "aksh",
        "a"
      ],
      [
        "com",
        "mit"
      ],
      [
        "com",
        "bat"
      ],
      [
        "pe",
        "ak"
      ],
      [
        "pe",
        "ace"
      ],
      [
        "res",
        "id"
      ],
      [
        "ic",
        "ated"
      ],
      [
        "po",
        "se"
      ],
      [
        "po",
        "inted"
      ],
      [
        "po",
        "ison"
      ],
      [
        "pl",
        "an"
      ],
      [
        "su",
        "f"
      ],
      [
        "dis",
        "figured"
      ],
      [
        "ex",
        "haust"
      ],
      [
        "si",
        "g"
      ],
      [
        "no",
        "se"
      ],
      [
        "af",
        "raid"
      ],
      [
        "um",
        "in"
      ],
      [
        "sp",
        "read"
      ],
      [
        "ef",
        "fulgent"
      ],
      [
        "co",
        "ol"
      ],
      [
        "sc",
        "or"
      ],
      [
        "ser",
        "ved"
      ],
      [
        "man",
        "ner"
      ],
      [
        "pleas",
        "ures"
      ],
      [
        "tru",
        "e"
      ],
      [
        "em",
        "bra"
      ],
      [
        "gu",
        "ar"
      ],
      [
        "amp",
        "ana"
      ],
      [
        "fru",
        "it"
      ],
      [
        "cont",
        "in"
      ],
      [
        "ksh",
        "atri"
      ],
      [
        "sen",
        "se"
      ],
      [
        "hero",
        "ic"
      ],
      [
        "bu",
        "ll"
      ],
      [
        "ris",
        "ing"
      ],
      [
        "run",
        "ning"
      ],
      [
        "appro",
        "pri"
      ],
      [
        "tim",
        "es"
      ],
      [
        "vult",
        "ures"
      ],
      [
        "sil",
        "ver"
      ],
      [
        "evil",
        "minded"
      ],
      [
        "pal",
        "ms"
      ],
      [
        "serp",
        "ent"
      ],
      [
        "serp",
        "ents"
      ],
      [
        "pa",
        "le"
      ],
      [
        "sid",
        "es"
      ],
      [
        "resembl",
        "ing"
      ],
      [
        "brill",
        "iant"
      ],
      [
        "hund",
        "red"
      ],
      [
        "sy",
        "m"
      ],
      [
        "approa",
        "ched"
      ],
      [
        "sw",
        "ans"
      ],
      [
        "tou",
        "ch"
      ],
      [
        "fish",
        "es"
      ],
      [
        "acc",
        "ord"
      ],
      [
        "subdu",
        "er"
      ],
      [
        "fulfi",
        "l"
      ],
      [
        "exce",
        "ll"
      ],
      [
        "Ak",
        "ampana"
      ],
      [
        "fema",
        "le"
      ],
      [
        "appropri",
        "ate"
      ],
      [
        "A",
        "d"
      ],
      [
        "A",
        "y"
      ],
      [
        "M",
        "ay"
      ],
      [
        "P",
        "anch"
      ],
      [
        "S",
        "um"
      ],
      [
        "a",
        "li"
      ],
      [
        "a",
        "live"
      ],
      [
        "a",
        "erial"
      ],
      [
        "b",
        "ound"
      ],
      [
        "c",
        "are"
      ],
      [
        "c",
        "rem"
      ],
      [
        "d",
        "le"
      ],
      [
        "d",
        "ess"
      ],
      [
        "f",
        "ra"
      ],
      [
        "h",
        "ak"
      ],
      [
        "h",
        "al"
      ],
      [
        "h",
        "un"
      ],
      [
        "h",
        "ab"
      ],
      [
        "i",
        "li"
      ],
      [
        "i",
        "ble"
      ],
      [
        "l",
        "s"
      ],
      [
        "l",
        "ow"
      ],
      [
        "m",
        "ad"
      ],
      [
        "m",
        "ace"
      ],
      [
        "m",
        "ark"
      ],
      [
        "m",
        "ort"
      ],
      [
        "o",
        "bl"
      ],
      [
        "p",
        "p"
      ],
      [
        "p",
        "ain"
      ],
      [
        "p",
        "il"
      ],
      [
        "t",
        "aken"
      ],
      [
        "w",
        "ings"
      ],
      [
        "x",
        "ed"
      ],
      [
        "y",
        "et"
      ],
      [
        "z",
        "e"
      ],
      [
        "व",
        "िंशस्सर्गः"
      ],
      [
        "ष",
        "ष्ट"
      ],
      [
        "ा",
        "शस्सर्गः"
      ],
      [
        "in",
        "s"
      ],
      [
        "in",
        "es"
      ],
      [
        "in",
        "ci"
      ],
      [
        "re",
        "ds"
      ],
      [
        "is",
        "ing"
      ],
      [
        "en",
        "ed"
      ],
      [
        "at",
        "ru"
      ],
      [
        "or",
        "ted"
      ],
      [
        "as",
        "a"
      ],
      [
        "as",
        "cend"
      ],
      [
        "de",
        "par"
      ],
      [
        "ro",
        "le"
      ],
      [
        "st",
        "ant"
      ],
      [
        "st",
        "ud"
      ],
      [
        "le",
        "aves"
      ],
      [
        "se",
        "ver"
      ],
      [
        "se",
        "ers"
      ],
      [
        "sh",
        "one"
      ],
      [
        "sh",
        "attered"
      ],
      [
        "al",
        "a"
      ],
      [
        "ir",
        "on"
      ],
      [
        "for",
        "ci"
      ],
      [
        "me",
        "m"
      ],
      [
        "ent",
        "r"
      ],
      [
        "ra",
        "ble"
      ],
      [
        "id",
        "ur"
      ],
      [
        "com",
        "pany"
      ],
      [
        "Th",
        "ose"
      ],
      [
        "ho",
        "pe"
      ],
      [
        "bro",
        "ke"
      ],
      [
        "pl",
        "ess"
      ],
      [
        "pl",
        "aces"
      ],
      [
        "mo",
        "ved"
      ],
      [
        "con",
        "qu"
      ],
      [
        "si",
        "ght"
      ],
      [
        "ust",
        "rious"
      ],
      [
        "know",
        "s"
      ],
      [
        "know",
        "er"
      ],
      [
        "um",
        "b"
      ],
      [
        "end",
        "owed"
      ],
      [
        "fir",
        "m"
      ],
      [
        "well",
        "being"
      ],
      [
        "well",
        "known"
      ],
      [
        "blo",
        "ss"
      ],
      [
        "should",
        "ers"
      ],
      [
        "prin",
        "ce"
      ],
      [
        "sc",
        "attered"
      ],
      [
        "happ",
        "iness"
      ],
      [
        "head",
        "s"
      ],
      [
        "em",
        "p"
      ],
      [
        "gu",
        "est"
      ],
      [
        "weap",
        "on"
      ],
      [
        "god",
        "dess"
      ],
      [
        "dev",
        "oid"
      ],
      [
        "Who",
        "se"
      ],
      [
        "eld",
        "er"
      ],
      [
        "gar",
        "lands"
      ],
      [
        "hel",
        "pless"
      ],
      [
        "med",
        "i"
      ],
      [
        "rea",
        "ch"
      ],
      [
        "ob",
        "tain"
      ],
      [
        "truth",
        "ful"
      ],
      [
        "pon",
        "d"
      ],
      [
        "contro",
        "lled"
      ],
      [
        "fam",
        "ous"
      ],
      [
        "thir",
        "ty"
      ],
      [
        "inten",
        "tion"
      ],
      [
        "six",
        "ty"
      ],
      [
        "hon",
        "our"
      ],
      [
        "wield",
        "er"
      ],
      [
        "thi",
        "ghs"
      ],
      [
        "accompl",
        "ished"
      ],
      [
        "Vis",
        "nu"
      ],
      [
        "flo",
        "cks"
      ],
      [
        "त्र",
        "िंशस्सर्गः"
      ],
      [
        "पञ्च",
        "ाशस्सर्गः"
      ],
      [
        "cal",
        "am"
      ],
      [
        "comm",
        "and"
      ],
      [
        "certain",
        "ly"
      ],
      [
        "weep",
        "ing"
      ],
      [
        "cre",
        "ep"
      ],
      [
        "excell",
        "ent"
      ],
      [
        "Sum",
        "itra"
      ],
      [
        "inci",
        "ble"
      ],
      [
        "stud",
        "ded"
      ],
      [
        "sever",
        "al"
      ],
      [
        "forci",
        "bly"
      ],
      [
        "bloss",
        "om"
      ],
      [
        "'",
        ","
      ],
      [
        "D",
        "o"
      ],
      [
        "I",
        "ksh"
      ],
      [
        "O",
        "ver"
      ],
      [
        "S",
        "in"
      ],
      [
        "V",
        "at"
      ],
      [
        "b",
        "a"
      ],
      [
        "b",
        "his"
      ],
      [
        "b",
        "ad"
      ],
      [
        "c",
        "r"
      ],
      [
        "c",
        "he"
      ],
      [
        "c",
        "aves"
      ],
      [
        "d",
        "has"
      ],
      [
        "d",
        "ried"
      ],
      [
        "e",
        "ct"
      ],
      [
        "e",
        "ty"
      ],
      [
        "f",
        "at"
      ],
      [
        "f",
        "av"
      ],
      [
        "f",
        "ame"
      ],
      [
        "g",
        "ged"
      ],
      [
        "h",
        "es"
      ],
      [
        "k",
        "u"
      ],
      [
        "k",
        "ed"
      ],
      [
        "l",
        "ap"
      ],
      [
        "p",
        "r"
      ],
      [
        "r",
        "ang"
      ],
      [
        "r",
        "ings"
      ],
      [
        "s",
        "and"
      ],
      [
        "s",
        "is"
      ],
      [
        "s",
        "at"
      ],
      [
        "s",
        "ave"
      ],
      [
        "s",
        "ound"
      ],
      [
        "t",
        "le"
      ],
      [
        "t",
        "ank"
      ],
      [
        "t",
        "rad"
      ],
      [
        "x",
        "icated"
      ],
      [
        "र",
        "िंशस्सर्गः"
      ],
      [
        "an",
        "x"
      ],
      [
        "in",
        "tell"
      ],
      [
        "in",
        "ary"
      ],
      [
        "re",
        "w"
      ],
      [
        "re",
        "ed"
      ],
      [
        "en",
        "der"
      ],
      [
        "en",
        "coun"
      ],
      [
        "or",
        "s"
      ],
      [
        "to",
        "ld"
      ],
      [
        "de",
        "ities"
      ],
      [
        "ro",
        "ared"
      ],
      [
        "ro",
        "aring"
      ],
      [
        "ro",
        "bes"
      ],
      [
        "st",
        "ep"
      ],
      [
        "st",
        "ars"
      ],
      [
        "li",
        "ons"
      ],
      [
        "li",
        "cted"
      ],
      [
        "with",
        "in"
      ],
      [
        "be",
        "ar"
      ],
      [
        "be",
        "ars"
      ],
      [
        "wh",
        "atever"
      ],
      [
        "ti",
        "al"
      ],
      [
        "fu",
        "n"
      ],
      [
        "lo",
        "ped"
      ],
      [
        "me",
        "re"
      ],
      [
        "ent",
        "er"
      ],
      [
        "com",
        "passion"
      ],
      [
        "ap",
        "i"
      ],
      [
        "fore",
        "head"
      ],
      [
        "od",
        "hya"
      ],
      [
        "ru",
        "th"
      ],
      [
        "ve",
        "loped"
      ],
      [
        "res",
        "iding"
      ],
      [
        "mi",
        "l"
      ],
      [
        "mi",
        "lar"
      ],
      [
        "ven",
        "erable"
      ],
      [
        "il",
        "ity"
      ],
      [
        "ag",
        "itated"
      ],
      [
        "qu",
        "een"
      ],
      [
        "fl",
        "ag"
      ],
      [
        "ck",
        "en"
      ],
      [
        "ord",
        "inary"
      ],
      [
        "ey",
        "e"
      ],
      [
        "bir",
        "th"
      ],
      [
        "sp",
        "ots"
      ],
      [
        "va",
        "idur"
      ],
      [
        "co",
        "ld"
      ],
      [
        "min",
        "e"
      ],
      [
        "ni",
        "fic"
      ],
      [
        "less",
        "ly"
      ],
      [
        "br",
        "anch"
      ],
      [
        "str",
        "ing"
      ],
      [
        "cri",
        "ed"
      ],
      [
        "tell",
        "ing"
      ],
      [
        "sl",
        "ender"
      ],
      [
        "ill",
        "ustrious"
      ],
      [
        "shi",
        "p"
      ],
      [
        "dist",
        "ressed"
      ],
      [
        "dist",
        "ress"
      ],
      [
        "pos",
        "s"
      ],
      [
        "mis",
        "sion"
      ],
      [
        "pit",
        "eous"
      ],
      [
        "demoness",
        "es"
      ],
      [
        "tor",
        "ment"
      ],
      [
        "hur",
        "led"
      ],
      [
        "inv",
        "incible"
      ],
      [
        "terri",
        "ble"
      ],
      [
        "hon",
        "oured"
      ],
      [
        "je",
        "cted"
      ],
      [
        "sal",
        "ut"
      ],
      [
        "sid",
        "dhas"
      ],
      [
        "attain",
        "ed"
      ],
      [
        "brill",
        "iance"
      ],
      [
        "lust",
        "re"
      ],
      [
        "stri",
        "ke"
      ],
      [
        "dec",
        "or"
      ],
      [
        "fif",
        "ty"
      ],
      [
        "pas",
        "sed"
      ],
      [
        "Vi",
        "bhis"
      ],
      [
        "produ",
        "ced"
      ],
      [
        "ei",
        "ther"
      ],
      [
        "omen",
        "s"
      ],
      [
        "horri",
        "pil"
      ],
      [
        "trun",
        "k"
      ],
      [
        "्वा",
        "रिंशस्सर्गः"
      ],
      [
        "fal",
        "se"
      ],
      [
        "smi",
        "le"
      ],
      [
        "ste",
        "ad"
      ],
      [
        "scor",
        "cher"
      ],
      [
        "Ay",
        "odhya"
      ],
      [
        "Panch",
        "avati"
      ],
      [
        "fra",
        "gr"
      ],
      [
        "षष्ट",
        "ितमस्सर्गः"
      ],
      [
        "Iksh",
        "vak"
      ],
      [
        "Vat",
        "api"
      ],
      [
        "sis",
        "ter"
      ],
      [
        "trad",
        "ition"
      ],
      [
        "H",
        "ence"
      ],
      [
        "N",
        "o"
      ],
      [
        "O",
        "r"
      ],
      [
        "O",
        "ne"
      ],
      [
        "S",
        "i"
      ],
      [
        "S",
        "au"
      ],
      [
        "a",
        "de"
      ],
      [
        "a",
        "ch"
      ],
      [
        "a",
        "chi"
      ],
      [
        "b",
        "ing"
      ],
      [
        "c",
        "it"
      ],
      [
        "c",
        "ir"
      ],
      [
        "d",
        "a"
      ],
      [
        "e",
        "qui"
      ],
      [
        "f",
        "it"
      ],
      [
        "f",
        "ro"
      ],
      [
        "g",
        "ant"
      ],
      [
        "g",
        "arm"
      ],
      [
        "i",
        "ve"
      ],
      [
        "j",
        "it"
      ],
      [
        "l",
        "dered"
      ],
      [
        "m",
        "ag"
      ],
      [
        "m",
        "orn"
      ],
      [
        "n",
        "amed"
      ],
      [
        "o",
        "ce"
      ],
      [
        "p",
        "ious"
      ],
      [
        "r",
        "ing"
      ],
      [
        "r",
        "or"
      ],
      [
        "r",
        "ong"
      ],
      [
        "r",
        "avana"
      ],
      [
        "s",
        "ol"
      ],
      [
        "s",
        "itting"
      ],
      [
        "t",
        "rans"
      ],
      [
        "u",
        "es"
      ],
      [
        "u",
        "sh"
      ],
      [
        "u",
        "red"
      ],
      [
        "u",
        "ka"
      ],
      [
        "v",
        "ast"
      ],
      [
        "w",
        "alk"
      ],
      [
        "y",
        "ed"
      ],
      [
        "y",
        "as"
      ],
      [
        "y",
        "oked"
      ],
      [
        "an",
        "u"
      ],
      [
        "an",
        "ge"
      ],
      [
        "in",
        "ed"
      ],
      [
        "in",
        "ter"
      ],
      [
        "in",
        "fl"
      ],
      [
        "the",
        "s"
      ],
      [
        "re",
        "ceived"
      ],
      [
        "ar",
        "na"
      ],
      [
        "en",
[...]
